<unk>	0
<s>	0
</s>	0
▁de	-2.94273
,	-3.09631
.	-3.41285
▁e	-3.88984
▁a	-4.10241
s	-4.18064
▁em	-4.32787
▁do	-4.32812
▁da	-4.33881
▁o	-4.42071
▁é	-4.52626
▁(	-4.69826
▁um	-4.71913
▁uma	-4.75679
-	-4.77982
▁00	-4.91896
▁que	-4.92247
▁no	-4.92983
▁0000	-4.96552
▁	-5.00316
▁na	-5.11972
▁foi	-5.12568
▁com	-5.14803
▁A	-5.20364
▁O	-5.2835
▁por	-5.31934
:	-5.36957
▁como	-5.44586
▁para	-5.45868
)	-5.46327
▁0	-5.58312
▁"	-5.66861
▁0000,	-5.76135
▁dos	-5.8139
se	-5.89469
▁os	-5.90346
▁0000.	-5.92728
▁-	-6.0134
▁mais	-6.03168
▁ou	-6.08954
▁ao	-6.10836
▁000	-6.12383
▁pela	-6.13942
a	-6.17761
o	-6.18435
▁sua	-6.19492
▁se	-6.25099
▁à	-6.25996
▁0000)	-6.26587
"	-6.30443
r	-6.3614
▁as	-6.36756
▁seu	-6.39035
▁das	-6.39996
▁pelo	-6.42459
em	-6.47387
▁também	-6.48234
).	-6.50573
▁entre	-6.57115
▁Em	-6.57966
m	-6.66953
▁cidade	-6.67998
),	-6.69129
▁são	-6.69231
▁não	-6.71418
▁00'	-6.72059
▁ser	-6.73688
e	-6.797
;	-6.80053
▁00°	-6.81607
▁família	-6.84129
▁Foi	-6.84288
▁espécie	-6.84743
▁nos	-6.94211
▁N	-6.95639
▁estado	-6.95731
▁É	-6.96319
▁anos	-6.97659
".	-6.99144
▁00"	-7.08534
do	-7.08644
▁Brasil	-7.08765
▁nome	-7.11797
▁era	-7.12668
▁sobre	-7.14206
▁tem	-7.14689
▁São	-7.15076
'	-7.15275
da	-7.15881
/	-7.16343
u	-7.17073
▁filme	-7.17957
▁E	-7.20112
▁álbum	-7.21024
▁até	-7.21123
▁foram	-7.23522
i	-7.23644
▁parte	-7.23708
▁Os	-7.24074
▁primeiro	-7.25065
▁ano	-7.25238
▁brasileiro	-7.25332
▁Coordenadas	-7.26358
▁The	-7.26931
▁sendo	-7.27038
▁km	-7.27414
▁conhecido	-7.28213
▁outros	-7.28286
▁pertencente	-7.28574
▁seus	-7.29992
▁No	-7.30771
▁município	-7.31773
n	-7.33639
▁localizada	-7.33888
▁habitantes	-7.35237
▁of	-7.35421
▁primeira	-7.35678
▁mas	-7.36194
▁área	-7.36979
▁região	-7.3878
l	-7.38797
ndo	-7.38828
▁Consultado	-7.39751
t	-7.40301
▁norte	-7.40365
▁série	-7.41548
▁durante	-7.41602
▁pode	-7.42528
▁onde	-7.43295
▁gênero	-7.43996
es	-7.46643
▁agosto	-7.48492
▁nas	-7.4879
",	-7.48883
▁Estados	-7.49279
▁Para	-7.50934
▁Unidos	-7.51199
▁Rio	-7.52612
▁I	-7.52955
▁Ele	-7.53699
▁inglês	-7.53765
▁lançado	-7.54198
▁tendo	-7.54231
▁dia	-7.54989
▁maio	-7.55215
▁Nota	-7.55718
▁outubro	-7.55758
▁maior	-7.55774
▁março	-7.56051
C	-7.56138
▁julho	-7.56418
▁setembro	-7.56693
A	-7.58021
▁janeiro	-7.58678
▁está	-7.59221
▁segundo	-7.5944
▁S	-7.59538
▁As	-7.59662
de	-7.59681
▁veja	-7.59916
▁banda	-7.60252
▁ele	-7.60305
▁sido	-7.61874
▁dezembro	-7.62232
▁abril	-7.62496
▁mesmo	-7.63044
▁dois	-7.63623
▁novembro	-7.65043
y	-7.66562
ia	-7.66661
▁De	-7.6704
▁Paulo	-7.67545
▁grupo	-7.67561
▁desde	-7.68193
▁junho	-7.68237
▁século	-7.68862
▁Na	-7.69416
▁suas	-7.69626
0	-7.69743
▁população	-7.70567
▁quando	-7.70732
▁fevereiro	-7.72423
d	-7.73769
▁principal	-7.74332
va	-7.74382
na	-7.75266
▁Sul	-7.75654
▁após	-7.76893
▁província	-7.77917
▁três	-7.78678
▁ex	-7.80162
ou	-7.80181
▁grande	-7.80907
▁forma	-7.81497
er	-7.82131
▁edição	-7.82247
▁the	-7.82328
▁cerca	-7.82894
▁apenas	-7.84281
▁Janeiro	-7.843
▁país	-7.84461
▁duas	-7.84917
▁Este	-7.85183
no	-7.85223
▁português	-7.85409
▁in	-7.86508
▁distrito	-7.86647
▁aos	-7.86838
mente	-7.88498
▁depois	-7.88644
S	-7.88851
▁história	-7.89121
▁D	-7.89905
is	-7.89992
▁conhecida	-7.90521
ta	-7.90829
▁outras	-7.91827
▁Universidade	-7.92095
▁canção	-7.92529
▁Campeonato	-7.92823
▁música	-7.92915
▁Portugal	-7.93047
▁ainda	-7.93256
c	-7.94675
▁editar	-7.94842
▁vez	-7.94963
▁ter	-7.95718
▁mundo	-7.95833
la	-7.95863
▁qual	-7.96376
▁localizado	-7.97131
▁(00	-7.97335
▁futebol	-7.98235
▁pelos	-7.99251
▁Se	-7.99431
▁americano	-7.99879
▁C	-8.00027
▁já	-8.00388
h	-8.00556
▁B	-8.01766
2.	-8.01904
ção	-8.02006
▁final	-8.02145
▁sul	-8.02536
km	-8.0311
▁muito	-8.03289
ram	-8.03323
▁partir	-8.04358
▁brasileira	-8.05555
▁pessoas	-8.05581
▁La	-8.06129
▁Nova	-8.06398
▁vezes	-8.06404
▁teve	-8.06592
▁T	-8.06678
▁este	-8.06777
▁Jogos	-8.08301
▁Sua	-8.08607
▁Condado	-8.09466
▁hab	-8.10004
▁Mundial	-8.10043
▁contra	-8.10065
americano	-8.10199
to	-8.10903
us	-8.11213
in	-8.11961
▁G	-8.11986
▁título	-8.12152
▁estadunidense	-8.12389
te	-8.12954
▁dirigido	-8.1332
▁bem	-8.13589
▁p	-8.13893
z	-8.13926
▁temporada	-8.14051
▁Guerra	-8.14066
▁sistema	-8.14516
ra	-8.1482
▁possui	-8.15125
▁político	-8.15254
▁densidade	-8.15259
▁Nacional	-8.15789
▁todos	-8.15806
▁Grande	-8.1601
▁profissional	-8.16409
en	-8.16592
O	-8.17183
▁países	-8.17378
▁(0000).	-8.17743
▁Com	-8.17915
▁sede	-8.18227
lo	-8.18576
▁número	-8.18635
▁and	-8.1874
▁P	-8.18815
▁Esta	-8.19059
▁vários	-8.1971
▁Possui	-8.1973
▁sem	-8.21023
▁através	-8.21073
▁jogo	-8.21275
▁quatro	-8.2155
▁tempo	-8.22047
k	-8.22202
▁Norte	-8.22424
▁período	-8.22426
▁às	-8.22664
▁Santa	-8.22902
▁além	-8.2323
▁comuna	-8.24016
▁re	-8.24363
▁capital	-8.24679
▁televisão	-8.24688
le	-8.24882
▁(0000)	-8.25066
▁alemão	-8.25279
▁Futebol	-8.25284
▁tornou	-8.25504
▁tinha	-8.26368
▁sob	-8.27576
▁segunda	-8.27601
dos	-8.27796
▁vida	-8.28584
▁cada	-8.28832
▁início	-8.2899
▁F	-8.29286
2	-8.29381
▁Estado	-8.30113
▁L	-8.3093
▁0000),	-8.31127
x	-8.31419
que	-8.31682
▁Um	-8.3174
▁empresa	-8.31943
▁competição	-8.32163
▁acordo	-8.32211
▁então	-8.3256
▁governo	-8.33574
▁José	-8.33707
ne	-8.33748
▁R	-8.34131
▁antes	-8.34229
ar	-8.34242
▁território	-8.34261
▁populacional	-8.34347
▁single	-8.3445
▁lista	-8.34597
▁clube	-8.35116
▁América	-8.35208
▁M	-8.35509
▁trabalho	-8.35676
▁carreira	-8.36226
▁João	-8.36874
b	-8.3706
▁estúdio	-8.37103
p	-8.37613
on	-8.37634
▁francês	-8.37658
ca	-8.37758
▁República	-8.3829
co	-8.38456
▁Espanha	-8.38572
▁Atualmente	-8.38655
▁Seu	-8.38731
▁lugar	-8.38735
▁alguns	-8.38793
ma	-8.39143
g	-8.39154
▁Reino	-8.39631
am	-8.40037
▁Maria	-8.4004
B	-8.40049
com	-8.40563
▁científica	-8.40822
▁Ela	-8.4113
▁original	-8.41217
▁00,0	-8.41269
das	-8.41687
▁II	-8.41791
▁V	-8.42209
▁melhor	-8.42442
▁podem	-8.42597
al	-8.42744
▁dias	-8.428
▁milhões	-8.42939
▁programa	-8.42991
▁m	-8.43145
▁ela	-8.43166
▁asteroide	-8.43404
▁incluindo	-8.43806
▁França	-8.44159
▁livro	-8.44491
▁rio	-8.44856
re	-8.44889
▁assim	-8.44913
▁0.000	-8.45259
▁várias	-8.45418
▁cantora	-8.4561
▁San	-8.45728
f	-8.45832
▁K	-8.45881
▁esta	-8.46055
▁década	-8.46358
os	-8.46452
▁principais	-8.46555
▁Alemanha	-8.47002
▁&	-8.47022
▁W	-8.47174
▁U	-8.47209
▁chamado	-8.47933
▁atualmente	-8.48331
▁época	-8.48557
ing	-8.48648
▁presidente	-8.48732
ro	-8.48951
▁estão	-8.49003
▁censo	-8.49257
▁metros	-8.49541
▁presente	-8.49568
▁devido	-8.4973
00	-8.50051
▁ilha	-8.50088
man	-8.5021
▁John	-8.50347
▁meio	-8.50473
D	-8.50523
▁enquanto	-8.50819
▁produção	-8.50846
▁todo	-8.51627
▁equipe	-8.52012
▁termo	-8.52087
▁Igreja	-8.52328
ni	-8.52461
▁membro	-8.52763
▁Internacional	-8.5289
▁versão	-8.53022
▁J	-8.5326
▁recebeu	-8.53863
▁referir	-8.54086
▁filho	-8.54832
▁Uma	-8.54971
▁jogos	-8.55269
▁0°	-8.55433
▁escrito	-8.5547
▁freguesia	-8.55498
▁sucesso	-8.55652
▁total	-8.55656
▁local	-8.56031
▁portuguesa	-8.56336
▁(0000),	-8.56649
▁considerado	-8.5719
▁morte	-8.57348
▁Por	-8.57354
▁posição	-8.57619
▁futebolista	-8.579
▁d	-8.58195
▁obra	-8.5832
▁oficial	-8.58569
▁nacional	-8.58773
▁musical	-8.58846
▁língua	-8.59018
▁fez	-8.59491
▁centro	-8.59714
E	-8.59752
▁Copa	-8.59799
á	-8.59843
▁campeão	-8.60304
▁tipo	-8.60409
ed	-8.60553
▁principalmente	-8.60723
▁ator	-8.60751
▁vila	-8.60975
▁Europa	-8.61273
▁base	-8.61627
▁significados	-8.6186
▁co	-8.61874
▁origem	-8.62034
▁mil	-8.62513
di	-8.62555
▁professor	-8.62707
▁autoridade	-8.63274
▁cinco	-8.63279
▁Re	-8.63352
ções	-8.637
▁Olímpicos	-8.63881
▁água	-8.64459
ce	-8.64524
um	-8.66245
▁seja	-8.66371
▁lado	-8.66441
▁desenvolvimento	-8.66614
▁código	-8.66737
▁filmes	-8.66751
▁evento	-8.67245
▁atriz	-8.67421
▁usado	-8.67434
▁faz	-8.67602
▁uso	-8.67955
▁longo	-8.68025
▁Porto	-8.68303
▁rei	-8.68314
▁categoria	-8.68322
▁atual	-8.68722
▁00,00	-8.68863
▁terceiro	-8.69178
P	-8.69216
▁0,0	-8.69296
I	-8.69396
▁exemplo	-8.69488
▁condado	-8.69573
▁conjunto	-8.69666
▁maioria	-8.6978
▁muitos	-8.69863
▁União	-8.69927
▁Mar	-8.69955
▁algumas	-8.69979
ado	-8.70016
▁conta	-8.70611
▁Tem	-8.70692
▁cantor	-8.70715
▁In	-8.70897
▁começou	-8.71144
▁grandes	-8.71966
F	-8.72063
▁género	-8.7209
▁descrita	-8.72179
▁Al	-8.72181
▁eram	-8.72202
▁todas	-8.72206
ga	-8.72489
▁0'	-8.72635
▁Japão	-8.73093
▁la	-8.73168
me	-8.73621
v	-8.73622
M	-8.7375
▁membros	-8.73775
▁diferentes	-8.739
res	-8.7399
go	-8.74281
▁H	-8.74284
▁política	-8.74495
▁fronteira	-8.74894
ch	-8.74968
▁fim	-8.75081
K	-8.75168
▁Região	-8.7518
▁disco	-8.75191
▁(0	-8.75628
▁passou	-8.7571
▁Me	-8.75819
▁X	-8.75903
▁Carlos	-8.76009
▁comunidade	-8.76053
ria	-8.76056
▁di	-8.76184
▁Era	-8.76188
▁descoberto	-8.76196
▁importante	-8.76303
▁Também	-8.76356
▁Unido	-8.76444
▁realizado	-8.76609
▁lançamento	-8.76629
▁militar	-8.76976
▁procura	-8.77096
▁numa	-8.77458
▁italiano	-8.77717
▁italiana	-8.77864
▁Trata	-8.77901
▁cinema	-8.77944
▁lançada	-8.77958
T	-8.78009
ba	-8.78101
▁há	-8.78118
▁NGC	-8.78144
as	-8.78226
▁rock	-8.7835
▁muitas	-8.784
▁Como	-8.78484
▁atua	-8.78689
▁artigo	-8.78713
▁Após	-8.79037
▁papel	-8.79038
▁geralmente	-8.79095
▁fundada	-8.79171
▁tarde	-8.79344
▁baseado	-8.79353
▁chamada	-8.79681
▁quais	-8.79723
mo	-8.80078
▁TV	-8.80137
▁Le	-8.80187
▁menos	-8.803
ri	-8.80514
▁criado	-8.80739
▁Instituto	-8.80776
▁maiores	-8.81609
▁projeto	-8.81654
▁internacional	-8.81678
▁Segunda	-8.81819
▁público	-8.81835
▁diversos	-8.8196
▁novo	-8.82006
▁Co	-8.82178
▁último	-8.82204
▁bairro	-8.82223
▁Além	-8.82279
▁Partido	-8.82635
▁outro	-8.82661
▁produzido	-8.82753
▁antiga	-8.82757
▁num	-8.82872
nte	-8.82878
an	-8.82931
▁galáxia	-8.83138
ismo	-8.83153
▁hoje	-8.83159
sa	-8.83261
desambiguação	-8.83339
▁00.000	-8.83342
▁torneio	-8.83471
▁escritor	-8.84022
th	-8.84062
▁altitude	-8.84116
▁China	-8.8417
ton	-8.84256
▁{\	-8.84584
ve	-8.84649
▁to	-8.84721
ada	-8.84734
el	-8.84785
▁grego	-8.852
ge	-8.85265
▁geral	-8.85336
▁espécies	-8.8542
j	-8.85497
í	-8.85629
▁guerra	-8.85735
▁Paris	-8.85782
ão	-8.85966
L	-8.86024
▁nova	-8.8608
H	-8.86101
▁Lisboa	-8.86375
▁ganhou	-8.86491
G	-8.86552
W	-8.8665
▁Está	-8.86784
▁junto	-8.87403
▁Centro	-8.87439
▁único	-8.8765
é	-8.88021
▁referência	-8.88083
li	-8.88228
▁Federal	-8.88463
▁processo	-8.88568
▁pelas	-8.88725
▁Império	-8.88919
▁criada	-8.89031
▁diretor	-8.89182
▁Francisco	-8.89421
▁obras	-8.89442
▁for	-8.89471
▁relação	-8.89552
▁Itália	-8.90047
▁antigo	-8.90146
▁ordem	-8.90176
▁divisão	-8.90449
V	-8.90554
▁têm	-8.90708
▁dados	-8.90768
▁latim	-8.91121
▁Terra	-8.91175
▁personagem	-8.9123
▁cidades	-8.91335
▁qualquer	-8.91344
idade	-8.91423
▁publicado	-8.91739
▁dentro	-8.9179
▁desta	-8.91841
▁entanto	-8.92003
▁regiões	-8.9203
▁mar	-8.9217
▁eles	-8.92208
▁seis	-8.92255
▁mesma	-8.92368
▁estilo	-8.92765
▁diversas	-8.92774
▁compositor	-8.92926
▁britânico	-8.92952
▁revista	-8.93018
▁Santo	-8.93172
▁realizada	-8.93602
style	-8.93709
▁prova	-8.93711
▁Faz	-8.94011
▁ocorreu	-8.94247
▁movimento	-8.94318
▁participação	-8.94425
▁fontes	-8.94487
▁Pedro	-8.94687
▁Clube	-8.94708
▁eleito	-8.94746
▁pai	-8.94748
▁c	-8.94925
dor	-8.95105
▁oeste	-8.95261
▁direção	-8.95342
ka	-8.9554
(	-8.95594
▁linha	-8.95618
▁sub	-8.95835
▁deste	-8.95876
▁classe	-8.95945
▁0,00	-8.9604
▁000.	-8.96215
▁México	-8.96357
ti	-8.96556
ista	-8.96591
▁New	-8.96665
▁comum	-8.96713
▁mundial	-8.96722
▁russo	-8.96863
▁concelho	-8.96874
bo	-8.96923
▁El	-8.97029
▁África	-8.97562
ir	-8.97901
▁ficou	-8.97997
▁|	-8.98226
▁embora	-8.98412
▁Prêmio	-8.98502
▁só	-8.98557
▁única	-8.98567
display	-8.98945
▁estava	-8.9908
fonte	-8.99082
R	-8.99092
▁drama	-8.99839
▁modelo	-8.99891
▁construção	-8.99956
▁primeiros	-8.99964
-00	-9.00081
▁havia	-9.00638
▁canal	-9.00704
▁Estende	-9.00883
▁nível	-9.01048
▁[	-9.01117
▁ponto	-9.01187
")	-9.0121
▁estreia	-9.01445
ina	-9.0149
▁ouro	-9.01626
▁Não	-9.01647
2,	-9.01789
▁naturais	-9.01984
▁encontrada	-9.02069
▁casa	-9.0212
▁jogador	-9.02204
▁rede	-9.02491
▁corpo	-9.02529
▁World	-9.02544
▁pouco	-9.02957
▁seguintes	-9.02993
▁Pan	-9.03127
▁arte	-9.03298
▁Roma	-9.03441
▁Inglaterra	-9.03733
▁Londres	-9.03792
br	-9.04253
▁constelação	-9.04354
▁escrita	-9.04524
▁Wikidata	-9.04608
▁caso	-9.04724
▁autor	-9.04727
▁estreou	-9.04794
▁00%	-9.04924
▁tanto	-9.05037
▁Entre	-9.05161
son	-9.05241
▁Casa	-9.05572
▁vice	-9.05739
▁situada	-9.05799
▁quase	-9.05897
▁Liga	-9.05962
▁pois	-9.06195
▁organização	-9.0624
▁William	-9.06322
▁botânico	-9.06334
▁Man	-9.06349
americana	-9.0645
▁inclinação	-9.06483
▁horas	-9.06743
▁popular	-9.06756
▁Desde	-9.068
▁Mo	-9.06808
▁americana	-9.06865
▁leste	-9.06867
▁conquistou	-9.07023
▁áreas	-9.07045
ver	-9.07049
pe	-9.07146
▁al	-9.0743
▁informações	-9.0788
▁'	-9.07968
▁última	-9.08099
▁Durante	-9.08154
▁alta	-9.08222
▁artista	-9.08294
▁poder	-9.08329
▁encontra	-9.08337
ry	-9.08478
▁utilizado	-9.08508
▁cargo	-9.08528
▁grupos	-9.08563
ly	-9.08693
▁Academia	-9.08749
N	-9.08821
▁disso	-9.08849
▁seguinte	-9.08919
▁excentricidade	-9.08985
▁originalmente	-9.09068
▁toda	-9.09109
▁Austrália	-9.09111
▁Silva	-9.09113
▁0000).	-9.09129
bra	-9.0914
▁cintura	-9.09569
▁Mundo	-9.09596
▁Festival	-9.096
▁medalha	-9.10319
▁minutos	-9.10429
ter	-9.10503
▁francesa	-9.10655
▁produzida	-9.11102
▁terceira	-9.11274
▁campeonato	-9.11277
za	-9.11316
▁social	-9.11455
▁(0000	-9.11517
▁importantes	-9.11723
▁espanhol	-9.11924
pa	-9.12008
et	-9.12082
▁Verão	-9.12133
▁Cruz	-9.12261
▁serviço	-9.12389
▁Ao	-9.12491
▁Records	-9.12523
ação	-9.12713
▁composta	-9.12806
▁comédia	-9.12838
J	-9.13659
▁insetos	-9.13679
▁isso	-9.13727
w	-9.14424
▁participou	-9.14648
ja	-9.14693
▁teoria	-9.14999
▁feminino	-9.15041
▁eventos	-9.15167
▁David	-9.15229
▁equipes	-9.15565
▁0"	-9.15582
▁formação	-9.15603
▁próprio	-9.15919
ki	-9.15985
▁Minas	-9.16039
▁Be	-9.16075
▁descoberta	-9.16206
▁fazer	-9.16251
▁campo	-9.16434
▁outra	-9.16455
▁Brasileiro	-9.16579
▁Canadá	-9.16627
▁espaço	-9.16767
▁tropicais	-9.16779
▁publicada	-9.1678
▁n	-9.17082
▁melhores	-9.17402
▁departamento	-9.1746
futebolista	-9.17496
▁marca	-9.17579
▁livros	-9.17741
vam	-9.17916
▁porém	-9.17934
▁Ma	-9.17977
▁Sistema	-9.18152
▁Pode	-9.18254
▁ascensão	-9.18371
▁York	-9.18381
▁capacidade	-9.18448
▁apresenta	-9.18493
▁James	-9.185
▁Po	-9.1852
▁Ha	-9.18886
▁Vila	-9.18888
▁Segundo	-9.18985
▁criação	-9.19143
▁cuja	-9.19287
▁volta	-9.19375
▁significa	-9.19642
▁ar	-9.19645
▁aproximadamente	-9.19742
▁disputada	-9.19947
▁considerada	-9.2003
▁planta	-9.20157
▁objetivo	-9.20259
▁Real	-9.20312
▁Car	-9.20389
▁inclui	-9.20492
▁Federação	-9.20599
▁responsável	-9.20798
▁feito	-9.20834
▁III	-9.20859
▁romance	-9.20983
▁Club	-9.21054
▁quarto	-9.21124
▁Costa	-9.21173
vi	-9.21423
▁Califórnia	-9.21748
tu	-9.21782
▁função	-9.2203
▁idade	-9.22547
▁esse	-9.22663
▁média	-9.22678
▁Pro	-9.22736
ya	-9.22743
per	-9.22849
▁interior	-9.23012
▁desenvolvido	-9.23068
▁cultura	-9.23248
▁zona	-9.23285
▁Depois	-9.2344
▁estrelado	-9.2356
land	-9.23678
be	-9.23708
▁Ver	-9.23711
der	-9.23884
▁Music	-9.24067
▁Rússia	-9.24087
asteroide	-9.24234
▁fundado	-9.24643
▁sempre	-9.24694
▁central	-9.2474
▁Iorque	-9.24788
cha	-9.24977
▁si	-9.25097
▁data	-9.25284
X	-9.25359
▁estação	-9.25387
}	-9.25414
▁jornalista	-9.25467
▁canções	-9.25622
▁mulheres	-9.25687
▁/	-9.25764
▁solo	-9.25831
▁Argentina	-9.2587
▁prêmio	-9.25939
▁escola	-9.26089
▁partido	-9.26181
ci	-9.26229
▁cor	-9.26549
mar	-9.2658
▁pontos	-9.26641
▁produtor	-9.26695
▁Ca	-9.26767
mi	-9.26776
▁sete	-9.26898
▁Apesar	-9.27088
The	-9.27132
ke	-9.27151
▁direito	-9.27207
▁álbuns	-9.27308
▁nomeado	-9.27606
▁masculino	-9.27694
▁fora	-9.27832
pi	-9.28063
▁disputa	-9.281
▁x	-9.28103
▁estrutura	-9.28109
▁formada	-9.28162
▁Gerais	-9.28163
▁seria	-9.28173
▁Santos	-9.28293
▁fase	-9.28298
▁eleições	-9.28344
▁Do	-9.28357
▁administrativa	-9.28497
▁faixa	-9.28882
▁Índia	-9.28894
▁Central	-9.29115
▁deve	-9.29327
▁velocidade	-9.29327
▁Robert	-9.29427
ner	-9.29578
il	-9.29637
▁irmão	-9.29902
▁exibida	-9.29906
?]	-9.29983
▁britânica	-9.30455
▁atuava	-9.30567
▁joga	-9.30576
▁Oscar	-9.30639
▁XIX	-9.3068
▁XX	-9.30811
▁000°	-9.30858
▁Brasileira	-9.309
▁i	-9.31098
▁Sa	-9.31163
U	-9.31197
▁composto	-9.31522
ajuda	-9.31602
São	-9.31637
▁posteriormente	-9.31891
▁estrela	-9.31971
▁serviços	-9.31998
▁artistas	-9.32034
mento	-9.32104
▁pesquisa	-9.32171
▁clubes	-9.32188
▁Monte	-9.32396
ur	-9.32399
▁pessoa	-9.32576
▁Los	-9.32582
▁Michael	-9.32678
▁magnitude	-9.3304
▁oito	-9.33085
▁Z	-9.33182
▁Museu	-9.33212
ú	-9.33233
▁tradicional	-9.33376
▁)	-9.337
▁Go	-9.33845
ley	-9.33855
▁baixa	-9.33905
▁autónoma	-9.33932
▁juntamente	-9.34067
▁Melhor	-9.34118
vo	-9.3418
▁altura	-9.34394
chi	-9.34647
▁Tour	-9.34732
▁própria	-9.34748
▁Estação	-9.3481
▁natural	-9.34832
ko	-9.34931
▁Bo	-9.35001
▁livre	-9.35014
▁Associação	-9.35068
▁anterior	-9.35097
carece	-9.35198
▁alto	-9.35505
▁essa	-9.35531
▁Abril	-9.35593
▁Escola	-9.35682
▁japonês	-9.35824
▁tal	-9.35852
▁declinação	-9.35953
▁Ciências	-9.35999
▁So	-9.36055
▁quanto	-9.36074
▁filha	-9.36112
▁usada	-9.36269
▁formado	-9.36409
▁igreja	-9.36419
ber	-9.36439
▁independente	-9.36591
▁=	-9.36598
▁00000)	-9.36602
▁Billboard	-9.36625
▁Da	-9.36732
▁Lo	-9.36856
▁sistemas	-9.37034
▁National	-9.37062
▁episódio	-9.37072
▁oficialmente	-9.37079
rá	-9.37083
▁lançou	-9.37178
▁construído	-9.37237
▁vivo	-9.37269
000	-9.37356
▁locais	-9.37395
▁Arquivado	-9.37408
po	-9.37445
▁resultado	-9.37451
▁tais	-9.37528
▁Grupo	-9.37554
▁habitats	-9.37652
▁Paul	-9.37709
▁(0000-0000)	-9.37716
▁Conselho	-9.3786
je	-9.3793
▁especial	-9.37942
▁Con	-9.3814
▁especialmente	-9.38234
▁Luís	-9.38279
▁energia	-9.3838
▁situado	-9.3839
▁causa	-9.38411
st	-9.38701
▁episódios	-9.38724
▁objeto	-9.38823
▁0.00000000	-9.38831
▁árabe	-9.38852
▁Cidade	-9.38853
ng	-9.38887
▁Distrito	-9.38895
den	-9.3911
fa	-9.39161
io	-9.39565
▁contém	-9.39757
▁elementos	-9.39937
▁emprega	-9.40143
idae	-9.40171
▁músicas	-9.4022
▁chegou	-9.40328
▁Setembro	-9.40342
▁distância	-9.40444
▁forças	-9.40467
-0	-9.40528
▁trabalhos	-9.40709
▁Embora	-9.40844
▁nascido	-9.40952
▁fica	-9.41079
id	-9.41125
▁quilômetros	-9.41214
▁atividades	-9.41502
▁subtropicais	-9.41566
▁serviu	-9.4158
▁Globo	-9.41596
▁acesso	-9.41623
▁000,00	-9.41668
▁personagens	-9.41736
▁possível	-9.41835
ck	-9.41991
▁real	-9.42
ões	-9.42053
▁esposa	-9.42196
▁con	-9.42232
▁perto	-9.42274
▁pequena	-9.42299
ha	-9.42416
▁Peru	-9.42467
▁Ko	-9.42501
▁Angeles	-9.4257
▁cujo	-9.42582
▁Ja	-9.42744
ó	-9.42778
também	-9.42835
▁ação	-9.42978
▁tornando	-9.43038
▁Li	-9.4304
tra	-9.4334
▁mercado	-9.43346
▁formato	-9.43399
▁flor	-9.43812
▁Maio	-9.43847
▁Ba	-9.43895
▁Bahia	-9.43979
ze	-9.44042
▁terminou	-9.44073
▁Primeira	-9.44192
▁Di	-9.44256
or	-9.44316
▁homenagem	-9.44334
les	-9.44394
▁quem	-9.44433
▁controle	-9.44568
▁Cor	-9.44577
▁modo	-9.44647
▁Awards	-9.44703
▁To	-9.44744
▁Ana	-9.44766
▁ca	-9.44817
▁tenha	-9.44925
▁sueco	-9.44948
▁governador	-9.45096
▁Ar	-9.45153
▁valor	-9.45195
▁000,0	-9.4526
it	-9.45265
▁Parque	-9.45315
▁refere	-9.45319
ntes	-9.45392
▁somente	-9.45434
▁cópias	-9.45519
▁força	-9.45583
▁Outubro	-9.45673
▁estudo	-9.45678
▁Quando	-9.4573
ine	-9.45804
▁costa	-9.45831
▁Março	-9.4594
▁florestas	-9.46032
▁0.0	-9.46057
▁venceu	-9.4616
▁deputado	-9.46193
▁simplesmente	-9.46204
▁comercial	-9.46221
▁lei	-9.46261
▁superior	-9.4629
▁("	-9.46349
▁menor	-9.46617
▁sociedade	-9.46639
▁nomes	-9.46696
▁especificamente	-9.46698
!	-9.467
▁atuou	-9.46705
▁incluem	-9.46749
▁Novo	-9.46767
▁teatro	-9.46821
]	-9.46858
▁gravadora	-9.46864
Rio	-9.46907
▁líder	-9.46932
▁longa	-9.46946
▁Exército	-9.47013
ano	-9.47183
▁unidade	-9.47294
▁empresas	-9.47318
▁segundos	-9.47328
qui	-9.47346
▁próximo	-9.47382
▁títulos	-9.474
▁Ro	-9.47454
▁Su	-9.47455
▁Te	-9.47499
▁estudos	-9.47741
▁comprimento	-9.47782
▁Mu	-9.47924
che	-9.47962
▁votos	-9.48125
▁plantas	-9.48562
dia	-9.48567
▁matemática	-9.4866
con	-9.48663
▁My	-9.48798
▁Municipal	-9.48857
▁ambos	-9.48904
▁localiza	-9.49037
▁imperador	-9.49261
▁estadual	-9.49316
▁luta	-9.49449
▁inicialmente	-9.49487
▁direitos	-9.49742
▁parâmetros	-9.49788
▁Per	-9.49789
ana	-9.49878
ru	-9.50035
▁Manuel	-9.50043
Z	-9.50097
La	-9.50104
▁Jorge	-9.50224
▁Lu	-9.50231
mos	-9.50269
▁George	-9.503
▁Super	-9.50349
▁Y	-9.50364
▁orbital	-9.50476
▁mulher	-9.50477
im	-9.5059
▁animais	-9.5078
▁Miguel	-9.50794
▁gastrópode	-9.50832
▁metal	-9.50843
gi	-9.50965
▁Suécia	-9.51195
tion	-9.51318
▁Mais	-9.51362
▁Ocidental	-9.514
ização	-9.51471
▁ensino	-9.51591
▁direcção	-9.51651
▁frequentemente	-9.51656
▁Católica	-9.51724
▁EUA	-9.51806
▁partes	-9.51836
▁rádio	-9.51921
▁Câmara	-9.52069
▁prefeito	-9.52074
ino	-9.52142
▁endémica	-9.5231
▁palavra	-9.52431
▁homens	-9.52466
▁Rede	-9.52491
▁Wikispecies	-9.52515
▁obteve	-9.52515
▁apoio	-9.52551
▁feita	-9.5263
▁pro	-9.52669
▁conceito	-9.52704
▁per	-9.52762
▁Senhora	-9.52825
▁terra	-9.5285
▁Sérvia	-9.52895
▁dupla	-9.52911
▁anti	-9.53043
&	-9.53129
▁meses	-9.53461
▁Bar	-9.53514
▁simples	-9.53621
▁Nos	-9.53678
▁Divisão	-9.53995
▁produtos	-9.54123
lin	-9.54169
▁Ka	-9.54191
▁fato	-9.54637
CS	-9.54649
▁IV	-9.54739
▁Ordem	-9.54809
▁trabalhou	-9.54999
▁Fernando	-9.55097
ita	-9.55298
▁Jesus	-9.55337
si	-9.55414
▁Papa	-9.555
▁japonesa	-9.5562
▁An	-9.55708
▁tempos	-9.55759
▁Julho	-9.55824
▁curta	-9.5583
▁alemã	-9.55887
▁organizada	-9.55944
▁City	-9.56104
▁histórico	-9.56178
português	-9.56198
▁roteiro	-9.56246
▁pop	-9.56536
▁poeta	-9.56658
▁características	-9.56681
▁time	-9.56723
▁Linha	-9.56745
▁municipal	-9.56783
▁problemas	-9.5687
sse	-9.5691
▁crítica	-9.56984
▁pública	-9.57034
▁American	-9.57039
▁Serra	-9.57103
▁cultural	-9.57353
▁Lei	-9.57459
▁Ta	-9.57492
▁quarta	-9.57597
▁Nossa	-9.57603
▁Sol	-9.57605
▁programas	-9.5768
▁tema	-9.57748
▁distribuição	-9.58054
▁Artes	-9.581
▁Seus	-9.58299
▁dez	-9.58306
▁companhia	-9.58423
▁jornal	-9.58502
▁Filho	-9.58559
bi	-9.58662
▁Antônio	-9.58668
▁logo	-9.58683
▁obsoletos	-9.58701
shi	-9.58939
▁federal	-9.59038
zo	-9.59038
▁vencedor	-9.59252
▁europeu	-9.59257
▁competições	-9.59308
▁estimada	-9.59309
▁Disney	-9.5936
▁usando	-9.59377
▁massa	-9.594
▁Vale	-9.59402
▁y	-9.59539
▁matemático	-9.5971
▁Charles	-9.59845
▁morreu	-9.59877
▁bastante	-9.59919
sen	-9.5994
▁vitória	-9.59962
por	-9.60003
▁consiste	-9.6006
▁St	-9.60092
▁forte	-9.60156
▁presença	-9.60259
▁ocorre	-9.60327
▁línguas	-9.60328
▁Ilha	-9.6036
▁Du	-9.60401
cu	-9.60405
▁Agosto	-9.60412
▁Love	-9.6042
▁You	-9.60569
▁Alegre	-9.6067
▁igual	-9.60672
▁via	-9.60793
▁momento	-9.60821
▁frente	-9.60898
▁Ra	-9.60977
▁Fa	-9.60977
▁Jean	-9.61011
▁League	-9.6106
▁artístico	-9.61095
ário	-9.61128
▁Catarina	-9.61134
PDF	-9.61171
▁fundador	-9.61177
▁casos	-9.61199
▁lhe	-9.61297
▁Novembro	-9.61339
▁normalmente	-9.61394
▁localidade	-9.61427
▁pequeno	-9.61558
▁Ne	-9.61599
▁Esse	-9.61638
▁recta	-9.61666
▁estados	-9.61697
▁Ásia	-9.61755
▁internacionais	-9.61824
▁economia	-9.6191
▁baseada	-9.61975
▁médico	-9.62012
▁municípios	-9.62014
los	-9.62015
so	-9.62054
▁filhos	-9.62123
▁conseguiu	-9.62171
▁instituição	-9.62415
▁apesar	-9.62632
▁del	-9.62719
▁nasceu	-9.62766
▁f	-9.62788
▁músico	-9.62869
tor	-9.62985
▁Junho	-9.631
dores	-9.6317
▁romaniz	-9.63176
▁Estádio	-9.63226
▁vídeo	-9.63359
▁Deus	-9.63587
▁alcançou	-9.63606
▁funções	-9.63626
tos	-9.63637
▁influência	-9.63655
ê	-9.63743
ul	-9.63898
▁material	-9.63977
ty	-9.64014
▁Pe	-9.64063
▁bispo	-9.64165
▁Cristo	-9.64275
▁sequência	-9.64315
tro	-9.64368
▁será	-9.64422
▁Rock	-9.64475
▁eleição	-9.64488
▁civil	-9.64537
▁Batalha	-9.64558
ie	-9.64593
▁Pertence	-9.64615
▁homem	-9.64694
ny	-9.64728
▁estádio	-9.64737
▁exército	-9.64789
▁sociais	-9.64938
▁pintor	-9.64958
▁Presidente	-9.65003
▁Can	-9.65026
ler	-9.65091
▁autores	-9.65188
▁exibido	-9.65287
▁edifício	-9.65372
des	-9.65467
▁jogadores	-9.65545
▁propriedade	-9.65554
=	-9.65691
▁disputado	-9.65768
▁International	-9.6581
Y	-9.65928
▁En	-9.65993
▁representa	-9.66007
▁Oliveira	-9.66143
▁abertura	-9.66179
▁indiano	-9.66241
▁Vi	-9.66273
▁romano	-9.66384
▁Pi	-9.66431
▁som	-9.66544
▁Mas	-9.66605
▁povo	-9.66699
▁Rei	-9.66816
ut	-9.66844
▁tipos	-9.66877
▁educação	-9.66901
▁perda	-9.66902
▁física	-9.67133
▁pré	-9.67216
▁Salvador	-9.67226
▁missão	-9.6727
▁prata	-9.67387
▁padrão	-9.67388
▁Nações	-9.67428
mer	-9.67526
▁relações	-9.67527
▁superfície	-9.67542
▁auto	-9.67559
▁Lima	-9.67662
▁meia	-9.67709
▁História	-9.67732
at	-9.67743
▁húmidas	-9.67748
ster	-9.67752
?)	-9.6777
▁nunca	-9.67803
▁ave	-9.67818
▁ilhas	-9.67854
▁Pa	-9.67868
▁baixo	-9.67879
▁diâmetro	-9.6795
▁destaque	-9.67985
▁curso	-9.68018
-000	-9.68019
▁singles	-9.6802
▁musicais	-9.68047
▁classificação	-9.68103
▁cores	-9.6813
wa	-9.68137
▁Castelo	-9.68203
▁Bi	-9.68292
▁António	-9.68319
▁primeiras	-9.68336
▁treinador	-9.68356
▁existe	-9.68373
▁bronze	-9.68393
▁comunicação	-9.68525
▁utilizada	-9.68542
▁extensão	-9.6856
▁advogado	-9.68583
▁famoso	-9.6865
▁Paraná	-9.68703
▁agora	-9.68718
▁histórica	-9.68742
ger	-9.6897
▁etc	-9.68982
▁Si	-9.68999
▁Ti	-9.69094
▁termos	-9.69113
nascido	-9.69174
▁novos	-9.69268
▁Leão	-9.69339
▁Ouro	-9.69417
▁organizado	-9.69592
ji	-9.69632
▁Hot	-9.6964
bu	-9.69674
tes	-9.69716
istas	-9.69719
▁emissora	-9.69723
▁Acacia	-9.6975
lhe	-9.69848
▁liga	-9.69853
▁Martin	-9.69879
▁Tu	-9.69998
▁atividade	-9.69998
link	-9.70059
▁pertence	-9.70084
▁site	-9.70175
▁metade	-9.70184
▁Portuguesa	-9.70223
▁imagens	-9.70224
▁Seleção	-9.70235
▁nacionais	-9.70236
▁Miss	-9.70241
▁literatura	-9.70336
▁show	-9.70401
▁mãe	-9.7042
▁militares	-9.70432
▁Essa	-9.70442
▁Dezembro	-9.70443
▁Governo	-9.70522
0=	-9.70531
▁on	-9.70569
▁reinado	-9.70699
▁nesta	-9.7076
▁conhecidos	-9.70798
▁en	-9.70809
ven	-9.70862
▁porque	-9.7099
▁prática	-9.71169
▁Peter	-9.71286
▁Richard	-9.71311
▁unidades	-9.71409
▁000.000	-9.71447
▁serem	-9.71503
▁corrida	-9.71507
▁últimos	-9.71579
▁mandato	-9.71704
▁canadense	-9.71752
ex	-9.7177
▁novamente	-9.71775
tiva	-9.71817
▁Mi	-9.7185
ville	-9.71851
ura	-9.7192
las	-9.72021
▁passa	-9.72119
▁Coreia	-9.72171
uma	-9.7222
▁entrou	-9.72222
▁provas	-9.72223
▁seleção	-9.72453
▁Entertainment	-9.72626
du	-9.72751
ers	-9.72776
ando	-9.72818
▁Chi	-9.72878
▁equipa	-9.72936
▁Soviética	-9.73052
▁flores	-9.7338
▁olímpico	-9.73443
un	-9.73586
▁indústria	-9.73588
▁escreveu	-9.73607
▁0.00000	-9.73674
▁pós	-9.73687
▁Assim	-9.73737
▁Ben	-9.73805
▁US	-9.73829
▁esteve	-9.73867
▁chefe	-9.73916
adas	-9.73951
▁fazendo	-9.7403
▁telenovela	-9.74104
▁batalha	-9.7421
▁Ci	-9.74264
▁+	-9.74304
▁ambiente	-9.74431
▁Washington	-9.74471
gu	-9.74555
jo	-9.74579
▁natureza	-9.74615
▁super	-9.74615
▁quinto	-9.74716
gem	-9.74791
▁levou	-9.74793
▁Áustria	-9.74863
▁pre	-9.74881
▁Tom	-9.74992
▁He	-9.75048
▁Dom	-9.75072
▁inglesa	-9.75138
▁saúde	-9.75306
▁anteriormente	-9.7538
▁vista	-9.75381
▁Fórmula	-9.75385
▁digital	-9.75557
▁faixas	-9.75639
▁versões	-9.75664
▁0000-00	-9.758
tus	-9.75836
fe	-9.75847
▁Fevereiro	-9.75883
▁humanos	-9.75916
sta	-9.76003
▁atacante	-9.76032
zi	-9.76061
▁ficção	-9.76069
▁vem	-9.76164
▁engenheiro	-9.76339
▁sentido	-9.76696
▁Park	-9.76732
▁classificado	-9.76766
▁novas	-9.76775
▁jovem	-9.76865
ça	-9.76943
▁Global	-9.76986
▁torno	-9.76995
▁prêmios	-9.77033
▁Marinha	-9.77065
▁reconhecida	-9.77166
▁letra	-9.77169
▁Suíça	-9.77171
▁empresário	-9.77208
▁quinta	-9.77208
▁chinês	-9.77319
▁plataforma	-9.77522
min	-9.77751
▁Thomas	-9.77752
▁Língua	-9.77827
ho	-9.77858
▁VI	-9.77901
nos	-9.77933
▁semanas	-9.78047
▁tamanho	-9.78054
▁Hall	-9.78063
▁Já	-9.78075
▁b	-9.7818
▁Socorro	-9.78183
▁ver	-9.78248
▁Eles	-9.78302
▁maneira	-9.78341
▁respectivamente	-9.78368
▁recursos	-9.78529
▁Suas	-9.787
▁Jo	-9.78701
car	-9.78935
▁Daniel	-9.78949
▁Ministério	-9.79075
▁edições	-9.79165
designada	-9.79175
▁sonora	-9.79176
▁Star	-9.79297
▁Ohio	-9.79352
▁Cinema	-9.79358
▁Campo	-9.79465
▁Alguns	-9.79468
▁artística	-9.79551
ic	-9.79653
▁desse	-9.79696
▁CD	-9.79714
▁nove	-9.79831
▁criar	-9.79848
▁medalhas	-9.79856
▁editora	-9.79878
▁artes	-9.79917
▁neste	-9.79925
▁Europeu	-9.80119
▁seguida	-9.80244
▁nem	-9.80347
▁possuem	-9.80348
▁Há	-9.80444
metragem	-9.80491
berg	-9.80577
▁Mac	-9.80661
▁Chile	-9.80676
▁tornar	-9.8079
▁ISBN	-9.80869
▁tecnologia	-9.80881
▁anteriores	-9.80902
fi	-9.80924
▁satélite	-9.80931
▁físico	-9.80951
▁oficiais	-9.80952
Americanos	-9.80975
▁Israel	-9.81016
men	-9.81032
▁segurança	-9.8115
nt	-9.81239
gue	-9.81259
▁tropical	-9.81305
▁qualidade	-9.81311
▁permite	-9.81335
▁competiu	-9.81355
▁von	-9.81396
by	-9.81457
ham	-9.81574
▁figura	-9.81648
▁dessa	-9.81754
[	-9.81977
▁Henrique	-9.82007
▁software	-9.82011
língua	-9.82038
▁existem	-9.82111
▁planeta	-9.82131
▁quadrinhos	-9.82179
▁cirílico	-9.82286
▁Texas	-9.82417
▁mês	-9.82442
▁ciência	-9.82495
▁acabou	-9.82541
▁trilha	-9.82558
amento	-9.82654
▁Ge	-9.82676
▁sediada	-9.82798
▁doença	-9.83032
▁Praia	-9.83085
▁formas	-9.83137
.[	-9.83167
▁turnê	-9.83206
▁!	-9.83214
▁Ju	-9.83264
▁defesa	-9.8332
▁peça	-9.83341
nd	-9.83346
▁acima	-9.83356
▁Saint	-9.83407
Brasil	-9.83523
▁iniciou	-9.83559
▁análise	-9.83567
▁armas	-9.83713
▁Eu	-9.8374
▁Série	-9.83791
▁administração	-9.83964
ados	-9.83983
densidade	-9.84175
▁aberto	-9.8426
▁00′	-9.84286
▁(0000-0000),	-9.84289
▁absoluta	-9.84305
▁Cha	-9.84357
ella	-9.84375
▁Red	-9.84418
▁vocalista	-9.84558
▁Congresso	-9.84579
▁atletas	-9.84599
▁semana	-9.84645
tas	-9.84685
ll	-9.84729
▁texto	-9.8478
ju	-9.84783
▁transporte	-9.84787
▁Departamento	-9.84804
▁importância	-9.84979
cia	-9.84989
▁aldeia	-9.85002
▁Berlim	-9.85098
▁habitat	-9.85098
▁romana	-9.85145
▁manut	-9.85149
▁l	-9.85291
meados	-9.85381
▁estações	-9.85383
▁parque	-9.85408
▁estar	-9.85438
▁LINEAR	-9.85439
▁Sub	-9.85465
▁condições	-9.85594
▁ciclista	-9.85594
▁entrada	-9.85655
▁pintura	-9.85672
▁gêneros	-9.85686
▁lago	-9.85715
▁gravada	-9.85884
▁\	-9.859
2).	-9.85957
Ma	-9.85958
▁Popular	-9.86081
▁técnica	-9.86099
▁quantidade	-9.861
▁Cu	-9.86116
pt	-9.86218
▁ma	-9.86274
▁recorde	-9.86279
▁linguagem	-9.8632
▁Black	-9.86323
▁museu	-9.86445
ad	-9.86456
▁inter	-9.86495
▁conteúdo	-9.86595
▁parceria	-9.8669
▁Fi	-9.86764
▁Windows	-9.86808
▁ba	-9.86823
lu	-9.86854
▁motor	-9.86888
▁crianças	-9.86922
▁mudou	-9.8693
▁extinta	-9.86942
▁Assembleia	-9.87105
▁médio	-9.87108
▁Grécia	-9.8712
▁antigos	-9.87163
▁existência	-9.87287
▁resultados	-9.87302
ten	-9.87328
▁West	-9.87372
ku	-9.87398
cos	-9.87404
▁Gar	-9.87479
▁nobre	-9.87671
▁construída	-9.8773
▁pequenas	-9.87783
▁Localiza	-9.87794
▁escolas	-9.87876
▁Rosa	-9.87891
\	-9.87932
q	-9.88101
▁Sociedade	-9.88121
▁rios	-9.88142
▁Lee	-9.88217
▁Val	-9.88221
▁All	-9.88316
▁Cabo	-9.88355
▁Rua	-9.88483
▁Colômbia	-9.8856
▁programação	-9.88586
▁semelhante	-9.8864
▁mo	-9.88686
sh	-9.88828
▁animação	-9.88901
▁comuns	-9.8891
+00°	-9.88968
▁Joseph	-9.88984
▁crescimento	-9.8899
▁expressão	-9.89019
▁Social	-9.89052
▁Brown	-9.8932
▁Irlanda	-9.8932
tt	-9.89344
▁Açores	-9.89351
▁estrada	-9.89526
▁par	-9.89534
▁provavelmente	-9.89545
▁Top	-9.89546
▁general	-9.89645
▁Company	-9.89674
tivo	-9.89681
ida	-9.89717
▁coleópteros	-9.89734
▁Guiné	-9.89744
Nova	-9.89858
via	-9.89887
▁(000	-9.90043
▁sudoeste	-9.90093
▁conhecimento	-9.90102
▁Direito	-9.90115
▁orquídea	-9.90148
▁Dr	-9.90293
▁Hu	-9.90355
▁Pre	-9.90445
▁Faculdade	-9.90627
▁Verde	-9.90711
▁Informação	-9.90736
▁Q	-9.90812
$	-9.90838
▁anual	-9.90905
▁Conde	-9.9096
▁Devido	-9.90995
▁portanto	-9.91129
▁guitarrista	-9.91136
▁décadas	-9.91173
gen	-9.91191
▁branco	-9.91315
▁contendo	-9.9136
▁Ilhas	-9.91417
cho	-9.91428
▁me	-9.91447
▁University	-9.91449
▁t	-9.91482
▁interesse	-9.91582
xi	-9.91652
eiro	-9.91662
▁Polónia	-9.91733
▁décimo	-9.91779
ol	-9.91902
▁estavam	-9.91909
▁dá	-9.92006
▁denominada	-9.92013
▁espiral	-9.92085
pro	-9.92116
▁realizadas	-9.92135
▁It	-9.92182
▁Ku	-9.92231
▁histórias	-9.92276
▁Dia	-9.92286
▁elenco	-9.92322
▁EP	-9.9233
▁Life	-9.92335
▁Pereira	-9.92493
▁tratamento	-9.92502
ros	-9.92551
▁Oceano	-9.92574
▁Association	-9.92601
▁Cultura	-9.92623
▁Polônia	-9.92625
▁Aeroporto	-9.92732
inho	-9.92785
ini	-9.92809
▁interpretada	-9.92842
?	-9.92857
▁representante	-9.92911
▁informação	-9.93016
como	-9.93031
▁Paulista	-9.93064
▁combate	-9.93138
▁Atlântico	-9.93239
▁denominado	-9.93252
▁campeã	-9.93328
▁fonte	-9.9334
nes	-9.93346
gar	-9.93427
▁nordeste	-9.93583
▁For	-9.93597
▁busca	-9.9375
▁Award	-9.93774
▁críticos	-9.93828
▁Europeia	-9.93948
▁letras	-9.94015
feira	-9.94026
▁noroeste	-9.94274
▁Castro	-9.94275
ek	-9.94328
▁Unidas	-9.94344
▁Herschel	-9.94385
▁temas	-9.94443
▁navio	-9.94475
the	-9.94504
▁Castela	-9.94541
▁piloto	-9.94569
▁argentino	-9.94692
▁sudeste	-9.94703
▁filosofia	-9.94736
fo	-9.94752
nia	-9.94819
▁publicação	-9.94851
ica	-9.94885
▁campanha	-9.95028
▁dado	-9.95051
▁método	-9.95051
▁Tri	-9.95058
mas	-9.95113
▁Football	-9.9514
▁ativo	-9.95143
▁multi	-9.95212
▁historiador	-9.95256
▁geração	-9.9531
▁políticas	-9.95658
▁variedade	-9.95669
▁teria	-9.95672
▁deixou	-9.95691
▁Roberto	-9.95802
ker	-9.95837
▁0000-0000	-9.95957
▁conde	-9.95971
▁Filipinas	-9.96019
▁Até	-9.961
▁diferente	-9.962
▁vinte	-9.96385
ência	-9.96406
▁car	-9.96613
▁Luiz	-9.96639
ensis	-9.96657
▁Mato	-9.96674
▁peixe	-9.96684
▁anfíbio	-9.96765
▁Oriental	-9.96792
▁partida	-9.96795
▁confundir	-9.96905
▁subfamília	-9.97017
▁medida	-9.97226
▁arquitetura	-9.97234
▁Grand	-9.97242
▁aparente	-9.97269
▁Marco	-9.97308
▁Mark	-9.97386
▁ameaçada	-9.97399
▁Mal	-9.97407
rio	-9.97515
▁Inverno	-9.97531
▁eletrônico	-9.97551
▁anualmente	-9.97594
▁apresentado	-9.97597
▁diretamente	-9.97675
▁Avenida	-9.97703
▁particular	-9.97706
▁projetos	-9.97811
▁células	-9.97826
▁ocidental	-9.97829
▁olímpica	-9.97856
▁FIFA	-9.97968
▁dinastia	-9.98025
▁humano	-9.98026
▁Civil	-9.98094
▁imagem	-9.9813
iano	-9.9821
▁elas	-9.98217
ável	-9.98259
▁gravado	-9.98277
▁mariposa	-9.98349
▁críticas	-9.98429
▁luz	-9.98479
▁000000...	-9.98501
▁aparece	-9.98525
▁Or	-9.98564
▁k	-9.98586
▁van	-9.98618
dy	-9.98661
ian	-9.98707
▁subespécie	-9.98757
▁franquia	-9.98775
ssa	-9.98803
▁rapper	-9.9883
ud	-9.98886
▁bi	-9.98903
ira	-9.98972
▁atingiu	-9.99026
▁formar	-9.99031
▁tradição	-9.99051
▁operação	-9.99195
▁trans	-9.99237
▁Louis	-9.9924
▁Van	-9.99241
▁domínio	-9.99265
▁Aires	-9.99273
▁Tra	-9.99274
▁noite	-9.99288
▁casamento	-9.99317
▁deles	-9.99331
▁partidas	-9.99363
▁visto	-9.99368
▁Nas	-9.99406
ron	-9.99465
▁DVD	-9.99519
▁XVI	-9.99528
▁contou	-9.99545
▁Smith	-9.99602
tar	-9.99712
▁su	-9.99715
pre	-9.9973
mann	-9.9976
eira	-9.99762
▁Za	-9.99789
▁independência	-9.9981
ns	-9.99862
▁Juan	-9.99909
▁Estatística	-9.99909
▁Ni	-9.99921
▁clássico	-10.0002
▁complexo	-10.0003
▁Ferro	-10.0003
▁categorias	-10.0006
://	-10.0007
▁Ga	-10.0007
▁Bu	-10.0013
▁Carolina	-10.0013
▁moderna	-10.0019
▁One	-10.0028
);	-10.0031
▁concurso	-10.0032
▁linhas	-10.0033
▁Antonio	-10.0041
▁algum	-10.0045
ov	-10.0047
▁peso	-10.0049
▁ligação	-10.005
ski	-10.0052
iana	-10.0065
ris	-10.0066
▁profissionais	-10.0076
ard	-10.0078
▁du	-10.008
▁efeitos	-10.009
stra	-10.0104
ite	-10.0111
▁Sal	-10.0117
▁Egito	-10.0119
▁{	-10.012
▁Center	-10.0122
▁Ferreira	-10.0126
▁Romano	-10.0131
▁Países	-10.0135
ā	-10.0145
▁pequenos	-10.0147
▁encontrado	-10.0154
field	-10.0161
▁King	-10.0162
▁Championship	-10.0165
0.	-10.0168
▁ramo	-10.0183
▁Eduardo	-10.0187
▁mal	-10.0187
▁escritora	-10.0203
▁Don	-10.0205
▁usados	-10.0206
▁estes	-10.0209
▁papéis	-10.0211
ministro	-10.0212
▁Recebeu	-10.0217
▁sexta	-10.022
▁campos	-10.0222
▁produto	-10.0223
▁voo	-10.0224
ion	-10.0232
▁chamados	-10.0235
▁senador	-10.0236
▁compositora	-10.0243
▁falta	-10.0271
cas	-10.0272
▁Mor	-10.0274
▁passando	-10.028
▁Província	-10.0286
iz	-10.0288
▁Revolução	-10.0298
▁operações	-10.0301
tis	-10.0312
▁Via	-10.0313
▁Fabaceae	-10.0313
▁Internet	-10.0326
▁vai	-10.0326
▁passado	-10.033
Al	-10.0332
▁computador	-10.0335
▁números	-10.0337
▁candidato	-10.0338
▁fins	-10.0349
▁escala	-10.0351
▁lugares	-10.0357
▁Que	-10.0358
▁populares	-10.0366
▁Canção	-10.0368
▁homônimo	-10.0381
au	-10.039
ico	-10.0394
▁André	-10.0394
▁topo	-10.0395
▁Escócia	-10.0401
▁Antes	-10.0402
sch	-10.0403
ac	-10.0409
▁Society	-10.041
▁cônsul	-10.0414
▁doce	-10.0425
tur	-10.0426
▁0,0000000	-10.0427
▁associação	-10.0427
▁sa	-10.0431
▁Palácio	-10.0432
▁palavras	-10.0433
ula	-10.044
▁humana	-10.0446
org	-10.0453
▁Pernambuco	-10.0458
▁contrário	-10.0461
▁regime	-10.0463
▁universidade	-10.0465
▁mistura	-10.0467
mor	-10.0467
▁XVIII	-10.0476
▁jovens	-10.0477
▁plano	-10.0485
ito	-10.0486
▁Bélgica	-10.0492
▁Príncipe	-10.0495
▁Taça	-10.0524
▁designação	-10.0527
▁voltou	-10.0541
▁praia	-10.0543
lan	-10.0549
▁desenho	-10.055
▁peças	-10.0552
▁Ber	-10.0554
▁Vitória	-10.0559
cal	-10.0565
▁torna	-10.0565
sco	-10.0569
▁Teatro	-10.0571
▁tri	-10.0574
lis	-10.058
▁terras	-10.0586
▁Henry	-10.059
▁et	-10.0594
ling	-10.0599
▁bandeira	-10.06
▁comando	-10.0601
presidente	-10.0601
▁Royal	-10.0602
▁aconteceu	-10.0604
▁reino	-10.0605
▁famosa	-10.0606
tz	-10.0615
▁Estadual	-10.0619
▁conhecidas	-10.0619
▁reconhecimento	-10.0624
▁ideia	-10.0631
▁quilómetros	-10.0638
▁aeroporto	-10.0645
lla	-10.0647
▁inclusive	-10.066
▁ações	-10.0662
▁próxima	-10.0666
▁espanhola	-10.0669
▁ataque	-10.0673
▁participar	-10.0675
▁anunciou	-10.0689
▁roteirista	-10.0691
▁Latina	-10.0706
▁receber	-10.0708
▁cabeça	-10.0713
▁Arte	-10.0728
▁Ho	-10.0729
▁Her	-10.073
▁Educação	-10.073
▁especialista	-10.0744
line	-10.0746
▁encontram	-10.0746
▁passageiros	-10.075
Re	-10.0753
fer	-10.0759
▁Duque	-10.0767
▁individual	-10.0774
▁Biodiversidade	-10.0779
▁tinham	-10.0789
▁Baixos	-10.0806
▁efeito	-10.0812
▁arquipélago	-10.0813
▁Ceará	-10.0814
▁Mon	-10.0817
▁trabalhar	-10.0818
▁voivodia	-10.0821
▁Is	-10.0822
▁Venezuela	-10.0825
▁Frank	-10.0825
▁realizados	-10.0829
▁fosse	-10.0832
hi	-10.0837
▁espacial	-10.084
▁atleta	-10.0843
▁séculos	-10.0851
"),	-10.0852
▁Ex	-10.0864
▁indicado	-10.0868
▁nenhum	-10.0868
▁Alto	-10.0876
▁seguir	-10.0877
▁Angola	-10.0878
▁etapa	-10.0881
ô	-10.0882
▁entidade	-10.0895
▁contexto	-10.0895
▁Gi	-10.0896
▁composição	-10.0897
▁Alexandre	-10.0903
▁objetos	-10.0904
▁inicial	-10.092
▁instituições	-10.092
▁Ce	-10.0921
▁vendas	-10.0929
▁poli	-10.0938
mon	-10.0939
▁rainha	-10.0946
▁Inter	-10.0947
▁atrás	-10.0951
ras	-10.0958
mp	-10.0963
▁Carvalho	-10.0963
▁Er	-10.0966
▁Zona	-10.0968
▁templo	-10.0969
▁pessoal	-10.0973
▁dólares	-10.0974
▁Superior	-10.0976
▁tão	-10.0979
tal	-10.0982
▁conflito	-10.0983
▁Sousa	-10.0988
▁regional	-10.0989
▁estrelas	-10.099
▁conforme	-10.0996
▁química	-10.0999
lar	-10.1003
▁Barcelona	-10.1007
▁Augusto	-10.1009
▁criou	-10.101
▁ro	-10.1011
para	-10.1016
▁antigas	-10.1017
▁águas	-10.1017
▁órgão	-10.1025
ara	-10.1029
▁Fe	-10.103
▁mídia	-10.1041
▁Neste	-10.1043
▁Força	-10.1044
▁fundação	-10.1044
▁contrato	-10.1052
▁le	-10.1054
▁Men	-10.1058
▁dentre	-10.1064
val	-10.107
▁Scott	-10.1076
▁participantes	-10.1077
▁reconhecido	-10.1081
▁atuação	-10.1087
▁General	-10.1089
▁Grosso	-10.1089
▁Santiago	-10.109
▁Bulbophyllum	-10.1103
▁séries	-10.1103
▁tiveram	-10.1106
▁vale	-10.1107
▁Atletismo	-10.1111
ff	-10.1114
▁transmissão	-10.1114
▁Che	-10.1117
▁tropas	-10.113
▁demais	-10.1134
▁Horizonte	-10.1134
▁fazem	-10.1146
▁problema	-10.1146
▁Tribunal	-10.1149
▁astrônomo	-10.1151
▁Turquia	-10.1151
▁Espírito	-10.1153
▁Villa	-10.1154
▁Belo	-10.1155
▁apareceu	-10.1168
▁processos	-10.1173
▁Geografia	-10.1174
cer	-10.1177
▁medalhista	-10.1177
▁folhas	-10.1178
▁Game	-10.1191
tura	-10.1191
▁(0000-0000).	-10.1194
▁isto	-10.1194
▁Microsoft	-10.1197
han	-10.1205
▁formam	-10.1205
ts	-10.1207
▁madeira	-10.1212
▁Dinamarca	-10.1217
▁serve	-10.1225
▁temperatura	-10.1227
▁FC	-10.1228
gan	-10.1233
▁renda	-10.124
▁situa	-10.1241
▁décima	-10.1243
▁Fundação	-10.1243
▁Teve	-10.1244
▁Oeste	-10.1247
▁Militar	-10.125
▁voz	-10.1257
net	-10.1259
▁rua	-10.1268
▁dança	-10.1271
▁samba	-10.1273
▁valores	-10.1275
▁usar	-10.1285
▁técnicas	-10.1286
▁deu	-10.1288
inha	-10.1293
▁Noruega	-10.1293
▁Madrid	-10.1294
▁César	-10.1303
▁mostra	-10.131
▁diz	-10.1313
▁FM	-10.1313
▁árvore	-10.1314
▁adaptação	-10.1318
par	-10.1324
▁Pacífico	-10.1333
ung	-10.1348
tta	-10.1356
▁Ponte	-10.1359
▁Pictures	-10.136
▁defensor	-10.136
▁Va	-10.1361
▁materiais	-10.1361
▁comércio	-10.1364
▁desempenho	-10.1371
▁Branco	-10.1379
tou	-10.1386
▁memória	-10.1392
▁realizou	-10.1406
ola	-10.1407
./	-10.1407
▁00.00	-10.1407
▁ra	-10.1407
gia	-10.1409
▁intitulado	-10.1412
Le	-10.1414
▁Jr	-10.1415
▁Bur	-10.1416
▁disponível	-10.1428
▁Live	-10.143
▁caminho	-10.1433
▁turno	-10.1435
iam	-10.1448
lia	-10.1448
up	-10.1449
▁Alberto	-10.1453
▁modelos	-10.1453
sk	-10.1454
▁Cal	-10.1455
bre	-10.147
▁industrial	-10.1471
▁corte	-10.1477
▁azul	-10.1489
ense	-10.1493
▁gelo	-10.15
▁sexto	-10.1511
▁Big	-10.1523
luz	-10.1526
qua	-10.1527
ssem	-10.153
▁abaixo	-10.1531
▁políticos	-10.1533
▁Dan	-10.1533
sso	-10.1539
▁Amor	-10.1545
▁Nintendo	-10.1546
▁Bal	-10.1554
ato	-10.1557
▁g	-10.1562
▁acidente	-10.1565
▁Grammy	-10.1567
▁manter	-10.157
▁Foram	-10.1577
▁ambas	-10.1584
▁Voleibol	-10.1585
▁página	-10.1601
▁PlayStation	-10.1603
ária	-10.1605
▁Isabel	-10.1609
▁Jardim	-10.1611
▁vendeu	-10.1622
▁Tal	-10.1626
ford	-10.163
▁decisão	-10.1633
▁engenharia	-10.1634
▁grega	-10.1634
▁Gomes	-10.1636
▁Fu	-10.1642
rem	-10.1643
▁festival	-10.1643
▁Bor	-10.1645
▁Desenvolvimento	-10.1656
ã	-10.1659
▁usa	-10.1663
▁mudança	-10.1671
▁Vol	-10.1673
▁Campos	-10.1674
▁Rodrigues	-10.1677
ais	-10.1683
▁territorial	-10.1694
▁Flórida	-10.1709
▁descrito	-10.1713
▁parada	-10.1716
uk	-10.1717
▁Constituição	-10.172
▁estudou	-10.1723
▁Har	-10.1725
▁âmbito	-10.1726
▁católico	-10.1726
mu	-10.1728
xa	-10.1741
▁veio	-10.1753
▁Commons	-10.1755
▁Afonso	-10.1759
▁cm	-10.1762
▁pressão	-10.1763
▁Inc	-10.1764
▁Jan	-10.1767
▁Zelândia	-10.1768
▁amor	-10.1773
▁disputou	-10.1774
▁Max	-10.1775
▁Brasília	-10.1779
▁Ya	-10.1783
ak	-10.1789
▁técnico	-10.179
▁menores	-10.1798
▁Ser	-10.1798
▁coleção	-10.1802
▁Comics	-10.1806
▁páginas	-10.1809
off	-10.1811
▁carro	-10.1815
▁navios	-10.1816
▁deputados	-10.1827
▁ministro	-10.1836
▁chegar	-10.1844
▁temporadas	-10.1847
▁denominação	-10.1848
nce	-10.1855
tel	-10.1861
▁reforma	-10.1862
▁Vida	-10.1864
▁Existem	-10.1865
hu	-10.1868
▁modalidade	-10.1874
▁Natal	-10.1879
▁situação	-10.1881
nas	-10.1888
▁frequência	-10.1889
▁realizar	-10.1895
▁especiais	-10.1899
▁Rádio	-10.1903
▁surgiu	-10.1908
▁Sam	-10.1912
▁castelhano	-10.1917
▁Film	-10.1918
▁símbolo	-10.1926
▁feminina	-10.1927
▁Praça	-10.1937
▁volume	-10.1946
0,	-10.1954
▁Chicago	-10.1958
▁Paraguai	-10.1961
▁discos	-10.1964
▁conquista	-10.1965
▁estando	-10.1969
▁Ano	-10.1973
▁pesquisas	-10.1975
tá	-10.1975
▁Gu	-10.1978
Q	-10.1984
▁jogou	-10.1985
▁posto	-10.1993
▁Bre	-10.1996
▁Outros	-10.1997
0)	-10.1999
▁Dias	-10.2011
▁Carl	-10.2012
▁Jackson	-10.2014
▁promover	-10.2018
▁boa	-10.2022
▁esquerda	-10.2022
▁Pará	-10.2023
▁característica	-10.2024
▁Tóquio	-10.2026
▁calendário	-10.2029
▁futuro	-10.2036
Se	-10.2038
▁Universal	-10.2041
▁gestão	-10.2044
▁culturais	-10.2045
he	-10.2047
▁Todos	-10.2054
▁clima	-10.2054
+	-10.2054
▁continua	-10.206
▁filósofo	-10.206
▁publicou	-10.2063
▁permaneceu	-10.2064
▁redor	-10.2068
▁trabalha	-10.2074
▁aumento	-10.2075
In	-10.2075
▁segue	-10.2077
▁Studios	-10.2082
▁indivíduos	-10.2083
▁Pico	-10.2086
▁Cultural	-10.2088
▁finais	-10.2093
De	-10.2094
▁irmãos	-10.2095
▁comerciais	-10.21
▁mudo	-10.2101
▁Albert	-10.2109
▁organizações	-10.2111
▁comumente	-10.2115
▁amplamente	-10.2116
ré	-10.2119
▁totalmente	-10.2139
▁Nesta	-10.2146
▁tradicionais	-10.2148
▁brasileiros	-10.2161
▁Fox	-10.2166
▁respeito	-10.2166
▁houve	-10.217
▁Times	-10.2176
▁Time	-10.2178
ist	-10.218
▁www	-10.218
▁Almeida	-10.2184
izada	-10.2185
ço	-10.2187
▁grau	-10.2188
rum	-10.2192
▁cabo	-10.2196
Na	-10.2207
▁paradas	-10.2209
▁vendido	-10.2209
▁religião	-10.2209
▁produtora	-10.2212
▁Ad	-10.2212
▁nenhuma	-10.2213
uri	-10.2214
▁inaugurado	-10.2215
▁We	-10.2216
pu	-10.2216
▁viveu	-10.2217
▁documentário	-10.2219
▁Geral	-10.2222
▁palácio	-10.2223
▁margem	-10.2232
Ro	-10.2232
▁Cada	-10.2238
▁Música	-10.2241
▁formiga	-10.2242
ix	-10.2248
▁Júnior	-10.225
▁United	-10.2252
ador	-10.2257
tina	-10.2258
▁quadrados	-10.2264
▁Feminino	-10.2265
bel	-10.2268
gua	-10.2271
00,	-10.2276
▁ciclo	-10.2281
ível	-10.229
▁Un	-10.2294
▁ajuda	-10.2298
▁bandas	-10.2303
▁Esporte	-10.2312
▁kg	-10.2319
▁movimentos	-10.2326
▁mexicana	-10.2328
▁vencer	-10.2338
▁territórios	-10.2341
agem	-10.2352
▁associado	-10.2354
▁Jack	-10.2355
▁Press	-10.2357
▁Guilherme	-10.2367
stro	-10.2369
▁selecionado	-10.2369
tão	-10.2373
▁Luis	-10.2373
▁eletrônicos	-10.2376
cus	-10.238
▁Ribeiro	-10.238
▁Group	-10.2381
ure	-10.239
don	-10.2391
▁Je	-10.2392
nu	-10.2392
▁príncipe	-10.2396
▁polífagos	-10.2396
▁Yu	-10.24
▁Isso	-10.2403
▁internet	-10.2409
ido	-10.2411
we	-10.2411
wi	-10.2416
▁censos	-10.2422
rão	-10.2424
▁relacionados	-10.2424
Mar	-10.2425
▁assumiu	-10.2425
▁verdade	-10.2428
▁duração	-10.2433
▁esses	-10.2434
▁Natural	-10.2438
▁sobretudo	-10.2442
▁pista	-10.2449
▁UK	-10.2452
▁Aérea	-10.2454
▁poucos	-10.2455
▁Hoje	-10.2462
▁Sports	-10.2468
▁at	-10.2473
▁goleiro	-10.2478
▁War	-10.2482
▁Arena	-10.2482
▁recebido	-10.2486
▁Mag	-10.249
pl	-10.249
▁Organização	-10.2493
tum	-10.2493
▁lá	-10.2496
▁esporte	-10.2498
▁Open	-10.2509
▁Tar	-10.2509
▁visão	-10.251
▁seriado	-10.2512
ye	-10.2513
bar	-10.252
▁sejam	-10.2521
SP	-10.2534
▁Torre	-10.2535
▁Kim	-10.2535
▁continuou	-10.2536
ach	-10.2537
▁equipamentos	-10.2539
▁Moscou	-10.254
▁Indonésia	-10.2542
▁montanha	-10.2544
bal	-10.2544
▁Oriente	-10.2544
▁mudanças	-10.2553
gui	-10.2566
▁Karl	-10.2576
nda	-10.2583
iva	-10.2583
Lisboa	-10.2583
▁White	-10.2587
▁traça	-10.2588
▁formou	-10.2591
▁Jones	-10.2597
▁sexual	-10.2598
▁caça	-10.2601
▁máxima	-10.2604
vis	-10.2605
lé	-10.2608
ide	-10.2609
Mo	-10.2619
▁defende	-10.2619
▁produzir	-10.2624
ani	-10.2624
▁gravação	-10.2625
▁Paraíba	-10.2627
osa	-10.2628
ena	-10.2631
▁Ali	-10.2634
▁Sport	-10.2637
▁semi	-10.2645
▁anime	-10.265
▁Ri	-10.2651
▁medieval	-10.2651
▁Solar	-10.2661
▁completa	-10.2663
▁Ki	-10.267
▁ta	-10.2675
▁0000-0000.	-10.2676
▁Três	-10.2682
ier	-10.2685
▁Alta	-10.2686
cor	-10.269
▁porta	-10.2694
▁Justiça	-10.2704
sur	-10.2706
▁UA	-10.2712
▁questões	-10.2714
▁encontrados	-10.2716
▁Idade	-10.2717
▁autoria	-10.2726
▁Atlético	-10.2727
Pa	-10.2733
▁Alchemilla	-10.2734
▁Night	-10.2734
▁realização	-10.2735
▁Confederação	-10.2737
ah	-10.2742
▁inaugurada	-10.275
▁Walter	-10.2755
▁Qui	-10.2758
▁relativamente	-10.2758
▁Ke	-10.2769
▁arquivada	-10.2774
ero	-10.2774
▁saída	-10.2776
▁arquiteto	-10.2785
▁propriedades	-10.2786
▁Congo	-10.2794
▁trono	-10.2799
▁Goiás	-10.28
▁Companhia	-10.2801
iu	-10.2802
▁razão	-10.2804
▁representação	-10.281
ō	-10.2816
▁obter	-10.2817
▁belga	-10.2817
▁passagem	-10.2819
▁porto	-10.2819
era	-10.2822
▁Nu	-10.2824
▁titular	-10.2825
▁Francesa	-10.2835
▁atingir	-10.2836
▁oriental	-10.2836
ct	-10.2837
▁ha	-10.2845
▁Hi	-10.2846
▁Vo	-10.2846
▁distribuído	-10.2846
áveis	-10.2857
ens	-10.2858
▁estaduais	-10.2858
▁America	-10.2858
▁Tor	-10.2861
ante	-10.2863
ii	-10.2863
▁Olímpico	-10.2866
▁apresentar	-10.287
tin	-10.287
▁fundamental	-10.2876
▁particularmente	-10.2883
▁aérea	-10.2884
ment	-10.289
▁Pu	-10.2897
▁máximo	-10.2899
▁trata	-10.2902
▁Lago	-10.2903
▁desenvolveu	-10.2906
́	-10.2912
▁Histórico	-10.2912
▁deriva	-10.2915
▁atuais	-10.2916
▁Romana	-10.2924
▁coluna	-10.2925
ran	-10.2938
mbo	-10.2938
var	-10.2942
▁podendo	-10.2946
▁encontrar	-10.2946
▁Mc	-10.295
▁povos	-10.2952
▁Ze	-10.2953
0000	-10.296
▁aplicação	-10.2961
▁Par	-10.2963
▁feitas	-10.2968
coreano	-10.2979
▁cursos	-10.2983
▁artigos	-10.2984
▁comportamento	-10.2984
▁h	-10.2987
▁Biblioteca	-10.2996
▁alguma	-10.3001
▁0000;	-10.3003
▁animal	-10.3003
▁começo	-10.3003
▁Ainda	-10.3011
dio	-10.3014
nica	-10.3015
▁BBC	-10.3019
▁reta	-10.3023
rie	-10.3038
▁Green	-10.304
▁editor	-10.3044
▁Algumas	-10.3047
▁colaboração	-10.3049
▁Cuba	-10.3051
▁00000	-10.3053
▁utilizados	-10.3054
▁XVII	-10.3055
▁sabe	-10.3056
▁rapidamente	-10.3056
yo	-10.3058
▁tentativa	-10.3061
são	-10.3062
▁voleibol	-10.3065
▁leva	-10.3065
ney	-10.3075
ity	-10.3085
▁Joaquim	-10.3101
▁sítio	-10.3103
ey	-10.3107
▁irmã	-10.3109
▁transmitido	-10.311
▁with	-10.3115
ente	-10.3117
▁Hungria	-10.312
▁Orchidaceae	-10.3121
▁verbete	-10.3122
▁micro	-10.3122
lle	-10.3127
su	-10.3127
▁popularmente	-10.3128
▁Volta	-10.3134
▁desenvolvida	-10.3135
▁veículos	-10.3137
▁mistas	-10.314
ndi	-10.3144
▁distritos	-10.3146
ste	-10.3146
tan	-10.3149
▁órbita	-10.3156
▁Show	-10.3165
▁apresentou	-10.3167
ona	-10.3174
▁Equador	-10.3174
▁capaz	-10.3177
▁Coleophora	-10.3178
▁Fortaleza	-10.3182
cy	-10.3183
š	-10.3186
▁tradução	-10.3187
gas	-10.319
▁http	-10.319
van	-10.319
▁Buenos	-10.3192
▁Ab	-10.3194
▁terrestre	-10.3197
▁cristã	-10.3199
lho	-10.3205
▁compete	-10.3214
▁Sch	-10.3216
ata	-10.3217
▁shows	-10.3222
▁Comissão	-10.3223
▁Chris	-10.3224
▁seguido	-10.3225
▁natal	-10.3235
izado	-10.3237
▁Universo	-10.3237
▁devem	-10.3239
▁fusão	-10.3239
▁definição	-10.324
▁inseto	-10.3248
▁oposição	-10.3257
▁estas	-10.3262
▁Shi	-10.3264
▁Edward	-10.3267
Sa	-10.3269
▁Uruguai	-10.3269
▁und	-10.327
▁recebe	-10.3272
▁russa	-10.3274
▁design	-10.3276
▁princípio	-10.3277
pp	-10.3279
▁professora	-10.3282
▁utiliza	-10.3283
▁000)	-10.329
▁Canal	-10.3295
▁Amazonas	-10.3302
▁gols	-10.3307
▁cineasta	-10.3313
▁margens	-10.3315
▁Porém	-10.3329
▁integrantes	-10.3331
▁passar	-10.3331
▁continente	-10.3333
▁Des	-10.3333
▁Sha	-10.334
▁sinal	-10.3341
▁Eurovisão	-10.3343
▁Imperial	-10.3343
▁doutorado	-10.3344
▁Sta	-10.3346
▁elevado	-10.3346
▁recentemente	-10.335
▁inferior	-10.3351
▁reais	-10.3351
▁verde	-10.3352
▁Tim	-10.3354
▁•	-10.3359
▁resposta	-10.3359
uta	-10.3359
▁Am	-10.3361
ot	-10.3365
▁Up	-10.3371
▁originais	-10.3372
▁direita	-10.3372
▁doze	-10.3374
▁Coimbra	-10.3382
▁algo	-10.3384
▁dedicada	-10.3387
▁Regional	-10.3393
▁casou	-10.3395
kin	-10.3403
▁Maranhão	-10.3409
▁Trans	-10.3411
▁Marvel	-10.3415
ves	-10.3419
del	-10.3419
▁científico	-10.3426
▁MTV	-10.3426
▁mangá	-10.3432
▁dirigida	-10.3435
▁exclusivamente	-10.3442
▁ciclismo	-10.3442
▁orquestra	-10.3446
▁poucas	-10.3453
Co	-10.3457
nus	-10.3457
▁Air	-10.3487
▁nesse	-10.3488
dora	-10.3489
▁Fo	-10.3498
▁núcleo	-10.3499
▁Banco	-10.35
▁Mer	-10.3513
one	-10.3514
▁Metropolitana	-10.3514
▁Metro	-10.3518
▁anunciado	-10.3521
▁atenção	-10.3532
sto	-10.3535
▁etapas	-10.3537
▁fogo	-10.3545
▁expansão	-10.3547
▁Final	-10.3548
xo	-10.3549
▁Enquanto	-10.355
rei	-10.3552
▁exterior	-10.3552
vin	-10.3557
▁músicos	-10.3557
▁múltiplos	-10.3558
▁Gil	-10.3561
▁Corporation	-10.3565
▁equivalente	-10.3566
ân	-10.3571
ux	-10.3576
▁integrante	-10.3577
▁nascimento	-10.3585
▁destes	-10.3587
ren	-10.3587
low	-10.3588
▁Pra	-10.3588
▁infantil	-10.3594
sson	-10.3596
▁moderno	-10.3597
▁fundo	-10.36
▁esportiva	-10.3604
▁IBGE	-10.3606
▁constituído	-10.3606
▁Hill	-10.3609
▁mexicano	-10.3612
▁essas	-10.3616
www	-10.3621
nome	-10.3623
▁milhão	-10.3623
wood	-10.3624
▁verão	-10.3627
▁redes	-10.3629
▁Ita	-10.3633
▁leguminosa	-10.3634
▁novela	-10.3637
▁Programa	-10.3646
▁bizantino	-10.3648
Ba	-10.3652
▁experiência	-10.3657
Vi	-10.3659
▁começaram	-10.366
▁Vicente	-10.3661
▁global	-10.3662
▁Terceira	-10.3663
▁Grã	-10.3667
▁tudo	-10.3669
▁Illinois	-10.367
▁aves	-10.3672
▁religioso	-10.3675
▁Alves	-10.3681
▁Pop	-10.3685
▁troca	-10.3688
▁Cup	-10.3688
▁apresentam	-10.3692
▁Alexander	-10.3693
gna	-10.3694
▁Ricardo	-10.3697
▁estruturas	-10.3698
_	-10.37
▁Comitê	-10.3701
▁Cópia	-10.3702
▁poderia	-10.3703
ius	-10.3704
à	-10.3707
ell	-10.3708
▁lançados	-10.371
▁turco	-10.3713
▁australiano	-10.3721
▁portugueses	-10.3722
▁times	-10.3727
▁suporte	-10.373
▁Chart	-10.3733
ias	-10.3734
▁aeronaves	-10.3745
▁Network	-10.3749
ting	-10.3758
▁Ban	-10.3758
▁crítico	-10.3763
00'00"	-10.3765
▁ácido	-10.3766
▁evolução	-10.3767
▁Nordeste	-10.3774
▁casas	-10.3775
▁mestre	-10.3778
▁Recife	-10.3778
▁sal	-10.378
▁instrumentos	-10.3785
▁Sé	-10.3788
▁condição	-10.3789
▁circuito	-10.3796
▁fala	-10.3797
ações	-10.3797
▁ferro	-10.3798
▁capítulos	-10.38
▁fa	-10.3801
▁banco	-10.3802
▁campeonatos	-10.3803
▁News	-10.3806
▁Barra	-10.3808
▁vive	-10.3809
nascida	-10.3814
▁apresentação	-10.3821
▁necessário	-10.3831
▁WWE	-10.3832
Portugal	-10.3833
▁terror	-10.3837
▁velho	-10.384
▁significado	-10.3841
▁tabela	-10.3843
▁Ve	-10.3844
▁vitórias	-10.3861
▁fundadores	-10.3862
▁College	-10.3867
▁religiosa	-10.3868
▁Island	-10.3869
▁utilização	-10.3874
▁ocorreram	-10.3875
bus	-10.3879
▁Braga	-10.3881
▁identidade	-10.3881
▁Ger	-10.3883
▁paz	-10.3888
▁medicina	-10.3888
▁usuários	-10.3889
▁Eric	-10.3893
▁Conta	-10.3894
▁recente	-10.3897
▁Team	-10.3905
▁comandante	-10.3905
▁Pensilvânia	-10.3909
▁daquele	-10.3912
tre	-10.3918
▁Democrática	-10.3919
▁ganhar	-10.393
▁computação	-10.3936
cri	-10.3936
▁nascida	-10.394
▁fundou	-10.3941
▁notável	-10.3942
▁ocupa	-10.3943
▁School	-10.3953
▁Parlamento	-10.3964
vel	-10.3965
▁asteróide	-10.3965
ig	-10.397
▁possivelmente	-10.3971
▁Arthur	-10.3972
▁Sony	-10.3975
▁classificada	-10.3983
▁eleitos	-10.3983
nis	-10.3985
polaco	-10.3988
▁mitologia	-10.3991
▁tratado	-10.3994
mina	-10.3998
▁so	-10.3999
est	-10.3999
▁setor	-10.4004
▁Series	-10.4005
▁honra	-10.4007
▁Entretanto	-10.4017
▁Sir	-10.4018
▁referido	-10.4019
lina	-10.4024
▁Saúde	-10.4028
▁liderança	-10.4029
▁Apenas	-10.4029
▁carga	-10.4034
▁Mata	-10.404
▁Christian	-10.4046
▁Gabriel	-10.4048
▁considerados	-10.4051
▁liberdade	-10.4051
▁chinesa	-10.4054
▁oferece	-10.4059
▁Band	-10.4064
zer	-10.4077
▁Street	-10.4078
н	-10.4081
▁Senhor	-10.4082
▁estudantes	-10.4082
▁corrente	-10.4082
▁Mel	-10.4083
pur	-10.4085
▁Bolívia	-10.4086
▁textos	-10.4094
▁transmitida	-10.4097
▁favor	-10.4101
▁Boy	-10.4102
▁vermelho	-10.4104
▁Martins	-10.4106
▁Art	-10.411
nie	-10.4111
▁corresponde	-10.4114
▁aspectos	-10.4117
▁doenças	-10.4118
▁Geórgia	-10.4124
▁Lista	-10.4125
▁escolha	-10.4128
▁ficando	-10.4137
▁Wikcionário	-10.4139
▁coreano	-10.4142
▁operado	-10.4142
ologia	-10.4145
▁desenvolver	-10.4149
▁House	-10.4149
▁polonês	-10.415
▁presentes	-10.4158
▁duplas	-10.4166
▁v	-10.417
▁produziu	-10.4171
▁aventura	-10.4172
▁começa	-10.4173
▁amigo	-10.4174
▁interpretar	-10.4175
▁participações	-10.4175
can	-10.4176
oso	-10.4176
▁entrar	-10.4178
▁lateral	-10.4179
▁ocorrido	-10.4179
▁Hollywood	-10.4181
▁níveis	-10.4182
▁Mary	-10.4189
▁0.00.	-10.4198
▁000-000	-10.4199
▁Editora	-10.42
▁0:	-10.4202
ín	-10.4211
op	-10.4212
iro	-10.4212
▁Hospital	-10.4219
▁bilhões	-10.4224
▁proteção	-10.4225
▁executivo	-10.4226
▁Tratado	-10.4226
▁custo	-10.4227
lon	-10.4228
▁exposição	-10.4231
▁Stone	-10.4233
▁óleo	-10.4239
Me	-10.4242
▁ranking	-10.4247
▁elemento	-10.4251
▁viagem	-10.4253
▁disponíveis	-10.4255
tica	-10.4257
▁tribo	-10.4258
▁online	-10.4261
▁VII	-10.4266
▁XV	-10.4271
ph	-10.4274
▁Finlândia	-10.4275
▁Letras	-10.4275
▁eletrônica	-10.4285
▁ja	-10.4292
▁Bill	-10.4292
▁an	-10.4299
▁arcebispo	-10.4302
▁UCI	-10.4303
▁ga	-10.4303
▁Media	-10.4306
▁Professor	-10.4308
▁bo	-10.4309
▁mão	-10.4309
▁ponte	-10.4311
▁sediado	-10.4314
▁Williams	-10.4315
▁disse	-10.4317
▁Ara	-10.432
▁ampla	-10.4322
▁Atenas	-10.4327
▁Columbia	-10.4329
▁colocado	-10.433
▁estimado	-10.4331
▁econômica	-10.4332
▁posse	-10.4332
▁Pat	-10.4335
▁resistência	-10.4337
▁Day	-10.4339
▁Sar	-10.4341
и	-10.4342
▁Ciência	-10.4352
▁sol	-10.4352
▁Mike	-10.436
▁pele	-10.4364
ila	-10.4368
▁aplicações	-10.4369
▁lo	-10.4379
▁taxa	-10.438
▁mecânica	-10.4384
▁europeus	-10.4384
▁Município	-10.4385
ivo	-10.4386
▁necessidade	-10.4387
▁substituído	-10.4388
000,	-10.4389
▁designado	-10.4393
tsu	-10.4398
▁concedido	-10.44
▁Português	-10.4403
▁representar	-10.4404
▁00,0%	-10.4409
▁determinado	-10.4411
rd	-10.4412
▁Lucas	-10.4412
▁Melo	-10.4413
▁prisão	-10.4416
▁Aloe	-10.4424
▁Bob	-10.4429
ei	-10.4431
▁pedra	-10.4432
▁Cer	-10.4435
▁completo	-10.4437
No	-10.4438
▁Viena	-10.4441
▁vi	-10.4443
▁Torneio	-10.4443
ez	-10.4445
▁selo	-10.4447
len	-10.4449
▁domicílios	-10.4449
▁w	-10.445
▁sétimo	-10.4451
▁risco	-10.4452
▁pe	-10.4454
▁DJ	-10.4457
ong	-10.4462
título	-10.4462
tter	-10.4463
▁ABC	-10.4465
▁estréia	-10.4471
▁Ed	-10.4471
▁Kong	-10.4473
▁alunos	-10.4473
▁desses	-10.4474
▁Sun	-10.4477
▁Las	-10.4478
▁Wrestling	-10.4479
cio	-10.448
nha	-10.4482
▁computadores	-10.4492
▁certificado	-10.4492
▁Auto	-10.4493
▁longitude	-10.4499
▁bar	-10.4503
▁universitário	-10.4504
ang	-10.4507
▁litoral	-10.4511
▁feitos	-10.4514
▁Estocolmo	-10.4515
▁sucessos	-10.4515
▁interna	-10.4517
aceae	-10.4517
▁universo	-10.4524
mais	-10.4525
▁sucedido	-10.4526
▁Land	-10.4526
▁beleza	-10.4531
burg	-10.4537
▁perdeu	-10.4537
▁Ponta	-10.4537
▁lepidópteros	-10.4539
pan	-10.4541
▁decidiu	-10.4543
▁Paz	-10.4545
▁Moçambique	-10.4545
▁Ru	-10.4545
cional	-10.4552
▁visual	-10.4554
▁Cinematográfica	-10.4555
▁Young	-10.4557
▁Ten	-10.4557
▁Lewis	-10.4558
▁métodos	-10.456
age	-10.4563
té	-10.4564
▁Acer	-10.4566
▁varia	-10.4568
▁residência	-10.4569
▁manteve	-10.4571
▁Catedral	-10.4572
ela	-10.4573
filme	-10.4575
▁clássica	-10.4575
▁facto	-10.4577
▁País	-10.4578
cto	-10.4579
▁policial	-10.4583
▁classificou	-10.4587
rus	-10.4591
р	-10.4591
▁preto	-10.4593
tri	-10.4599
▁Cara	-10.4601
▁Opera	-10.4602
▁Min	-10.4603
▁Reis	-10.4606
▁leis	-10.4608
▁descreve	-10.4609
▁similar	-10.4616
▁cerimônia	-10.4618
▁semelhantes	-10.4621
▁sangue	-10.4624
е	-10.4625
eta	-10.4626
olo	-10.4627
▁Livro	-10.4629
ī	-10.463
▁prefeitura	-10.4635
▁Homem	-10.4639
▁papa	-10.4639
▁DC	-10.4639
▁gás	-10.464
▁espectadores	-10.4644
▁tra	-10.4644
▁alcançar	-10.4647
▁aeronave	-10.4649
▁nomeada	-10.465
▁Channel	-10.4651
dar	-10.4652
▁Victor	-10.4657
▁redireciona	-10.4664
▁marido	-10.4668
▁Souza	-10.4668
▁localização	-10.4669
▁bairros	-10.4672
tação	-10.468
").	-10.4684
▁investigação	-10.4685
▁sexo	-10.4687
▁tornaram	-10.4689
▁estadounidense	-10.4691
▁Comunidade	-10.4693
▁abriga	-10.4695
▁proposta	-10.4696
▁Nobel	-10.4697
▁realidade	-10.4697
▁passaram	-10.4697
▁(0,00	-10.4698
▁vocais	-10.4698
▁Baixa	-10.47
án	-10.4705
▁representando	-10.471
lá	-10.4717
▁pais	-10.4718
▁dedicado	-10.4725
▁Massachusetts	-10.473
▁canais	-10.4731
▁percurso	-10.4733
▁Il	-10.4734
▁econômico	-10.4741
▁montanhas	-10.4745
rea	-10.4747
▁raça	-10.475
▁Warner	-10.475
▁Del	-10.4751
▁fizeram	-10.4757
▁Medicina	-10.4758
▁pi	-10.476
▁vaga	-10.4761
▁quadro	-10.4762
▁Gal	-10.4762
▁altamente	-10.4764
▁mono	-10.4766
▁Tro	-10.4768
▁Tecnologia	-10.4769
▁pp	-10.4778
▁limite	-10.4782
▁paulista	-10.4783
▁extinto	-10.4787
▁químico	-10.4796
tório	-10.4798
▁venda	-10.48
lim	-10.4801
▁representou	-10.4802
▁infância	-10.4802
▁protagonista	-10.4809
▁direta	-10.4813
▁especializada	-10.4814
▁chegando	-10.4819
▁Boa	-10.4822
ón	-10.483
▁Médio	-10.4831
▁sim	-10.4832
▁regras	-10.4835
▁completamente	-10.4839
▁Col	-10.484
IBGE	-10.4842
▁edifícios	-10.4842
▁cal	-10.4844
▁Estrada	-10.4846
▁Tur	-10.4849
ant	-10.485
▁negócios	-10.4856
▁rural	-10.4864
▁Bra	-10.4865
mes	-10.4866
▁ciências	-10.4866
▁Campeões	-10.4868
▁solar	-10.487
▁fórmula	-10.4871
phi	-10.4876
▁Far	-10.4876
▁ali	-10.4881
▁am	-10.4884
▁tempestade	-10.4887
▁Movimento	-10.4887
▁resto	-10.4902
▁Senado	-10.4902
▁Joe	-10.4909
▁Tre	-10.4912
nta	-10.4916
▁traduzido	-10.4919
ish	-10.4921
▁regular	-10.4929
▁Bay	-10.493
}}	-10.4931
tti	-10.4942
▁Diocese	-10.4942
▁Johnson	-10.4944
▁Mad	-10.4947
▁enredo	-10.4949
ral	-10.495
bro	-10.4951
▁instrumento	-10.4954
▁Muitos	-10.4956
▁Wilson	-10.4956
▁Posteriormente	-10.4959
▁History	-10.496
▁Lake	-10.496
▁Primeiro	-10.4968
lha	-10.4968
▁tênis	-10.4976
▁ataques	-10.4978
bia	-10.4978
▁Originalmente	-10.4986
▁Davis	-10.4987
▁Participou	-10.4988
▁bacia	-10.4994
▁formando	-10.4999
▁ocasião	-10.5001
▁Lopes	-10.5006
Con	-10.501
▁Americana	-10.5013
▁mi	-10.5014
▁princesa	-10.5018
▁popularidade	-10.5019
nho	-10.502
▁escolhido	-10.5022
▁atores	-10.5028
▁finalmente	-10.5029
▁zagueiro	-10.503
▁castelo	-10.5035
lus	-10.5037
ken	-10.5038
▁dinheiro	-10.5039
▁foco	-10.5042
▁Spec	-10.5045
ö	-10.5047
▁impacto	-10.5052
▁sucessor	-10.5057
▁morto	-10.5057
▁revistas	-10.5057
а	-10.5058
▁basquete	-10.5059
▁Ur	-10.5059
mal	-10.5063
▁documentos	-10.5064
▁posições	-10.5065
▁figuras	-10.5068
▁Machado	-10.5069
ea	-10.5078
▁usadas	-10.508
▁execução	-10.5081
Bretanha	-10.5081
▁legislatura	-10.5089
cher	-10.5093
▁May	-10.51
▁UEFA	-10.5102
▁Pinto	-10.5103
▁elétrica	-10.5106
▁operacional	-10.5106
▁Long	-10.5112
▁tenham	-10.5114
▁nativa	-10.5115
cur	-10.5119
jogador	-10.5119
▁indivíduo	-10.5121
▁públicos	-10.5122
▁Xbox	-10.5123
▁urbana	-10.5129
▁−	-10.5131
▁Secretaria	-10.5132
▁Han	-10.5139
▁raízes	-10.514
▁marciais	-10.5145
▁dividida	-10.5147
▁aberta	-10.5147
▁Anna	-10.5149
▁significativa	-10.5152
▁im	-10.5152
▁promovido	-10.5155
▁oceano	-10.5156
san	-10.5156
▁veículo	-10.5159
▁Bad	-10.516
▁Patrimônio	-10.5161
▁Madeira	-10.5162
▁Gra	-10.5164
▁Franco	-10.5168
til	-10.517
▁incorporada	-10.5172
▁económica	-10.5174
▁Marie	-10.5175
▁traças	-10.5176
aria	-10.5177
ok	-10.5179
▁Livre	-10.5182
ü	-10.5184
▁estabeleceu	-10.5185
▁cenário	-10.5186
▁XIII	-10.5186
let	-10.5186
▁estatuto	-10.5187
▁poesia	-10.5187
▁indicações	-10.5188
▁alemães	-10.5189
▁top	-10.519
▁originária	-10.5191
▁representantes	-10.5191
▁is	-10.5193
▁constante	-10.5196
▁Sant	-10.5197
▁Marcos	-10.5204
▁líderes	-10.5208
▁soldados	-10.5211
▁projetado	-10.5213
▁jazz	-10.5217
▁delas	-10.5227
▁fe	-10.523
▁dividido	-10.5233
▁Lua	-10.5248
▁Tony	-10.5248
▁duque	-10.5249
rin	-10.525
sia	-10.5251
▁imperial	-10.5255
▁baterista	-10.5257
▁comunidades	-10.526
▁inspirado	-10.5263
▁Estes	-10.5267
▁lógica	-10.5272
kh	-10.5272
▁volumes	-10.5276
▁marcou	-10.5281
ent	-10.5282
▁Curitiba	-10.5288
▁extremo	-10.5288
▁Medalha	-10.529
▁North	-10.5291
ps	-10.5294
▁participaram	-10.5296
▁Colégio	-10.5302
▁Pequim	-10.5303
dis	-10.5305
▁zonas	-10.5314
▁Bel	-10.5317
▁registro	-10.5317
▁Leste	-10.5317
▁Steve	-10.5321
▁Les	-10.5324
bol	-10.5326
▁falada	-10.5326
▁Preto	-10.5329
▁retorno	-10.5338
▁Google	-10.535
▁urbano	-10.5351
tic	-10.5352
▁promoção	-10.5354
▁superiores	-10.5359
izou	-10.5361
dal	-10.5361
▁Species	-10.5361
▁Filipe	-10.5362
▁questão	-10.5364
▁meios	-10.5371
▁ad	-10.5371
▁traz	-10.5373
▁Cho	-10.5379
_{	-10.538
pé	-10.5383
▁chama	-10.5385
▁Isto	-10.5386
tte	-10.5386
▁mantém	-10.5389
▁hip	-10.5392
met	-10.5399
ía	-10.5402
▁cardeal	-10.5402
▁províncias	-10.5408
▁escrever	-10.5409
▁Prémio	-10.5411
▁componentes	-10.5413
ane	-10.5416
▁secretário	-10.5418
rou	-10.543
▁referida	-10.5437
▁diferença	-10.544
▁Bon	-10.5441
way	-10.5441
zar	-10.5441
ndesamt	-10.5442
▁encontradas	-10.5449
▁agremiação	-10.545
▁estabelecimento	-10.545
▁caráter	-10.5455
mont	-10.5458
▁corre	-10.5459
▁mundiais	-10.5459
▁Stephen	-10.5463
ight	-10.5464
▁torre	-10.5467
▁0000".	-10.5471
ev	-10.5473
▁XII	-10.5476
▁South	-10.5477
▁France	-10.5483
▁reação	-10.5485
▁praça	-10.549
▁peixes	-10.5491
▁ti	-10.5497
▁privada	-10.5498
▁Machine	-10.5499
ima	-10.5506
▁guarda	-10.5512
▁princípios	-10.5515
Pfalz	-10.5516
▁Mendes	-10.5517
nga	-10.5519
▁exclusiva	-10.5521
▁católica	-10.5534
▁extinção	-10.5534
▁públicas	-10.5534
gno	-10.5534
▁00.00000	-10.5536
família	-10.5544
▁onze	-10.5544
oni	-10.5547
▁lit	-10.5549
▁Ray	-10.5551
▁produz	-10.5552
▁nação	-10.5553
▁solução	-10.5572
▁matéria	-10.5574
tha	-10.5575
▁Rocha	-10.5576
▁fortes	-10.5578
▁Ter	-10.5583
uca	-10.5584
zu	-10.5585
▁mãos	-10.5586
▁imprensa	-10.5587
▁Ye	-10.5587
▁Out	-10.5595
▁Forte	-10.5597
mentos	-10.5598
▁corridas	-10.5599
▁nessa	-10.5602
▁Major	-10.5606
▁Bíblia	-10.5607
▁branca	-10.5609
Ha	-10.561
▁Tomé	-10.5613
tado	-10.5613
cre	-10.5616
▁igualmente	-10.5619
▁he	-10.5622
cá	-10.5623
▁Dis	-10.5626
▁afirma	-10.5626
▁cinematográfica	-10.5636
▁can	-10.5636
▁guitarra	-10.5639
▁Wa	-10.5642
▁definido	-10.5645
▁crise	-10.5646
▁terem	-10.5651
▁constitui	-10.5653
▁pé	-10.5654
pin	-10.5655
▁Pierre	-10.5657
▁Bento	-10.5658
To	-10.5658
▁descrever	-10.5662
▁invasão	-10.5662
▁web	-10.5666
▁normal	-10.5667
bri	-10.5668
hr	-10.567
▁Fra	-10.5672
har	-10.5678
▁praticamente	-10.5682
▁Média	-10.5685
▁Union	-10.5686
▁indica	-10.5687
comuna	-10.5691
cta	-10.5695
▁freguesias	-10.5696
ich	-10.5697
om	-10.5711
▁neo	-10.5713
▁órgãos	-10.5714
▁sueca	-10.5716
▁Polo	-10.5721
▁by	-10.5723
▁bom	-10.5723
▁Sin	-10.5727
▁Dar	-10.5727
▁queda	-10.5727
▁bio	-10.5728
izar	-10.5729
Ca	-10.5733
▁Santana	-10.5736
▁arco	-10.5737
▁evitar	-10.5737
illa	-10.5744
▁agricultura	-10.5748
rro	-10.5751
▁Ministro	-10.5753
▁from	-10.5753
tia	-10.5759
▁abrange	-10.5761
▁convidado	-10.5761
▁Sur	-10.5762
▁nações	-10.5763
▁lutador	-10.5764
▁dele	-10.5768
▁Alex	-10.5768
well	-10.577
▁australiana	-10.5775
▁extra	-10.5776
▁colocação	-10.5777
logia	-10.5778
▁Rainha	-10.5782
dra	-10.5784
▁seres	-10.5786
▁golpe	-10.5789
▁fantasia	-10.5793
▁avião	-10.5798
nco	-10.5798
▁cinemas	-10.58
▁apresentada	-10.58
▁Bom	-10.5801
▁produzidos	-10.5802
▁opera	-10.5805
▁teste	-10.5808
▁arquivos	-10.5812
▁Will	-10.5814
▁Dois	-10.5815
▁porte	-10.5818
▁Velho	-10.5819
▁Hong	-10.5821
▁lagos	-10.5823
▁polícia	-10.5825
▁Constantinopla	-10.5825
ther	-10.5826
tive	-10.5829
▁faleceu	-10.5838
▁Taylor	-10.5839
▁Games	-10.5842
▁chamadas	-10.5845
▁utilizando	-10.5846
▁Gonçalves	-10.5848
▁Marte	-10.585
Ar	-10.585
▁basquetebol	-10.5851
▁salto	-10.5852
ice	-10.5853
▁cidadãos	-10.5856
▁península	-10.5866
▁Júlio	-10.5866
▁enorme	-10.5871
lli	-10.5872
▁Síria	-10.5872
▁usuário	-10.5875
▁Inicialmente	-10.5879
▁Polícia	-10.5884
▁Nov	-10.5884
▁Rafael	-10.5886
▁Ven	-10.5888
▁servir	-10.5893
ética	-10.5897
▁esportes	-10.5899
ー	-10.5905
▁Space	-10.5908
▁igrejas	-10.5915
▁carne	-10.5915
americanos	-10.5917
▁PC	-10.5918
▁ideias	-10.5919
▁actual	-10.592
▁Nigéria	-10.5921
▁NBA	-10.5922
▁Comunista	-10.593
▁hebraico	-10.593
▁Península	-10.5939
▁contato	-10.5944
▁civis	-10.5944
▁arma	-10.5945
pri	-10.5945
▁largura	-10.5948
▁Agrostis	-10.5949
▁-00°	-10.5949
▁horário	-10.595
▁Cre	-10.5955
▁Guarda	-10.5959
▁próprios	-10.5963
▁00-00	-10.5964
gov	-10.5966
▁Ken	-10.5969
▁soma	-10.5969
▁Ucrânia	-10.5971
▁Cavaleiro	-10.5973
▁durou	-10.5974
▁Nesse	-10.5976
▁Fernandes	-10.5976
▁históricos	-10.5978
▁0-0	-10.5978
▁fãs	-10.5981
▁colonial	-10.5982
▁prédio	-10.5983
▁0,000	-10.5991
ä	-10.5994
▁Pela	-10.5994
hl	-10.5995
▁Blue	-10.6002
▁Rheinland	-10.6013
▁conseguir	-10.6015
▁missões	-10.6015
gos	-10.6019
▁interface	-10.602
▁Little	-10.602
ele	-10.603
▁aqueles	-10.6031
▁Simon	-10.6032
ρ	-10.6037
gy	-10.6038
llo	-10.6038
▁latino	-10.6039
qu	-10.604
▁Soares	-10.6046
▁extremamente	-10.6048
▁possa	-10.6051
▁ibne	-10.6051
▁mu	-10.6054
▁Mari	-10.6055
rado	-10.6059
▁man	-10.6071
lândia	-10.6073
▁telescópio	-10.6077
▁nuclear	-10.6077
▁produtores	-10.608
▁publicados	-10.6087
ava	-10.6088
▁externa	-10.6089
▁naquele	-10.6092
▁conservação	-10.6093
▁vencedora	-10.6095
ep	-10.6097
▁Win	-10.6099
▁árvores	-10.6101
▁útil	-10.6106
▁possuía	-10.6108
▁rápido	-10.611
Ra	-10.6116
▁interpretação	-10.6117
▁cenas	-10.6118
▁Formicidae	-10.612
▁Best	-10.6121
▁amigos	-10.6134
rica	-10.6137
▁relacionadas	-10.6143
▁soviético	-10.6147
▁Camponotus	-10.6148
▁treinamento	-10.6149
▁Marcelo	-10.6155
▁Munique	-10.6158
▁filiado	-10.6158
prefeito	-10.6161
▁alternativo	-10.6163
▁Zi	-10.6164
▁esportivo	-10.6164
▁Ball	-10.6164
din	-10.6167
▁Stadium	-10.6167
▁fabricante	-10.6167
▁Ribeira	-10.6172
▁Adam	-10.6175
▁motores	-10.6176
▁latitude	-10.6181
▁Socialista	-10.6185
▁onda	-10.6185
ua	-10.6188
▁parece	-10.6188
▁Tailândia	-10.6191
▁vivem	-10.6192
▁Lombardia	-10.6192
rra	-10.6193
▁potencial	-10.6199
▁associada	-10.6199
▁apelido	-10.62
ins	-10.62
▁platina	-10.6201
▁fluxo	-10.6212
▁Die	-10.6212
▁manutenção	-10.6219
▁metropolitana	-10.6219
▁trinta	-10.6219
ik	-10.6223
▁Bri	-10.6224
▁atletismo	-10.6228
▁chegada	-10.6234
▁Vista	-10.6237
▁Dor	-10.6237
▁capela	-10.6239
▁Nomes	-10.6241
▁fatores	-10.6241
▁levar	-10.6243
Do	-10.6244
▁casado	-10.6245
▁seleções	-10.6247
▁ocupação	-10.6251
bin	-10.6252
rre	-10.6254
▁jogar	-10.6257
for	-10.6269
iza	-10.6269
tivos	-10.6269
ete	-10.6271
vio	-10.6274
ídeos	-10.6282
▁estabelecido	-10.6283
▁judeus	-10.6289
▁actualmente	-10.6289
▁te	-10.6289
campeão	-10.6296
▁Freguesias	-10.6301
▁sigla	-10.6302
▁limites	-10.6303
sky	-10.6305
▁dessas	-10.6306
▁ir	-10.6307
▁legal	-10.6308
▁Hans	-10.6309
▁espectral	-10.6309
▁Defesa	-10.6309
▁cre	-10.6309
▁Toronto	-10.6309
mba	-10.631
▁bateria	-10.6318
▁Catalunha	-10.6318
▁regionais	-10.6318
▁cientista	-10.6321
▁suíço	-10.6321
▁Bell	-10.6323
▁Jim	-10.6323
▁rota	-10.6323
▁Kirk	-10.6324
▁partidos	-10.6328
art	-10.6328
▁ocorrer	-10.6329
▁Estudos	-10.633
▁COVID	-10.6333
▁Academy	-10.6335
▁compreende	-10.6336
▁palco	-10.6342
▁carros	-10.6344
▁00,00000000	-10.6345
▁Público	-10.6347
▁Começou	-10.6347
mus	-10.6351
▁li	-10.6353
▁constituída	-10.6362
▁XIV	-10.6364
л	-10.6365
▁assuntos	-10.6366
/0000	-10.6366
▁000-000).	-10.6367
▁cena	-10.6374
▁Mario	-10.6376
▁pan	-10.6377
tch	-10.6378
▁Negro	-10.638
▁disputadas	-10.6384
▁Sim	-10.6386
Porto	-10.6386
▁rodovia	-10.6389
▁Piauí	-10.639
▁capa	-10.6392
▁fazia	-10.6397
▁tiro	-10.6397
▁London	-10.64
OS	-10.6404
▁existentes	-10.6407
▁Fez	-10.6409
▁Tele	-10.6413
▁ginástica	-10.6414
▁pinturas	-10.6421
ges	-10.6424
antes	-10.6429
▁be	-10.6432
▁ne	-10.6437
▁biblioteca	-10.6443
AL	-10.6444
▁Vieira	-10.6445
▁polegadas	-10.6448
▁celeste	-10.6453
▁Mário	-10.646
▁existente	-10.6461
sha	-10.6462
gio	-10.6463
ding	-10.6464
uro	-10.6464
с	-10.6465
town	-10.6465
Americano	-10.6466
▁Sérgio	-10.6468
▁padrões	-10.6468
▁IX	-10.6471
▁cujos	-10.6473
TV	-10.6478
ari	-10.6481
▁Nascido	-10.6482
▁mundialmente	-10.6488
▁Jerusalém	-10.6489
°	-10.6492
sti	-10.6494
▁fi	-10.6496
▁visível	-10.6497
▁var	-10.6499
Lo	-10.6501
▁Cur	-10.6503
ble	-10.6503
▁BR	-10.6506
▁curto	-10.6507
▁vão	-10.6509
nde	-10.651
▁Diego	-10.651
Li	-10.6513
▁festa	-10.6513
▁fenômeno	-10.6516
▁assinatura	-10.6516
▁Alan	-10.6521
So	-10.6524
od	-10.6525
oli	-10.6528
▁ruas	-10.6529
▁Emmy	-10.6531
▁Cambridge	-10.6533
▁índice	-10.6537
▁personalidade	-10.6541
▁candidatos	-10.6542
▁Gales	-10.6543
▁xadrez	-10.6545
▁Cunha	-10.6546
▁publicações	-10.6556
▁bens	-10.6558
▁retornou	-10.6559
▁Lúcio	-10.6561
▁u	-10.6564
▁posterior	-10.6565
▁contribuições	-10.6565
▁gminy	-10.657
▁jardins	-10.657
▁Bruno	-10.6572
▁Segurança	-10.658
▁Sem	-10.6583
▁Es	-10.6585
▁decreto	-10.6585
▁Johann	-10.6585
▁acontece	-10.659
Bo	-10.6593
▁aparição	-10.6594
è	-10.6595
▁Brian	-10.6595
▁tese	-10.6599
▁Dead	-10.6599
й	-10.6605
bá	-10.6611
▁East	-10.6613
▁Ross	-10.6614
▁Estas	-10.6614
▁Bulgária	-10.6614
▁Ford	-10.6614
▁destaca	-10.6615
▁dito	-10.6616
▁posteriores	-10.662
▁deixar	-10.6627
▁Friedrich	-10.6629
view	-10.663
▁vendidos	-10.6631
▁dada	-10.6632
bas	-10.6633
nder	-10.6633
▁Pesquisa	-10.6634
▁Contudo	-10.6634
▁Jornal	-10.6635
▁correspondente	-10.664
▁Britânica	-10.6641
▁universidades	-10.6642
▁definida	-10.6645
▁sin	-10.6649
▁Beira	-10.665
▁presidência	-10.6653
▁sétima	-10.6653
▁violência	-10.6654
▁graus	-10.6654
ser	-10.6655
tico	-10.6657
▁austríaco	-10.6663
ː	-10.6668
▁famílias	-10.667
▁cadeia	-10.6671
▁pico	-10.6674
▁exploração	-10.6675
▁play	-10.6677
port	-10.6677
▁precisa	-10.6678
▁Aragão	-10.6678
▁Gemeinden	-10.668
gon	-10.6682
▁Harry	-10.6685
▁coletânea	-10.6686
▁interpretado	-10.669
▁relacionado	-10.669
▁suspense	-10.6693
▁funcionamento	-10.6699
▁Som	-10.6699
▁vocal	-10.67
▁sofreu	-10.6701
ários	-10.6704
▁escritos	-10.6705
д	-10.6708
CE	-10.6709
▁graças	-10.6711
▁idioma	-10.6712
sas	-10.6712
▁lojas	-10.6715
▁união	-10.6719
▁fotografia	-10.6722
▁pensamento	-10.6722
▁Holanda	-10.6733
▁húngaro	-10.6743
▁gravou	-10.6743
▁UNESCO	-10.6746
▁She	-10.6746
▁numeração	-10.6747
▁Elizabeth	-10.6748
▁Mont	-10.6752
▁Miranda	-10.6753
ン	-10.6758
▁carta	-10.6758
▁dando	-10.676
uf	-10.6761
▁independentes	-10.6766
▁saiu	-10.6766
▁Conus	-10.6766
▁eleita	-10.6767
▁Revista	-10.6769
▁ponta	-10.6771
▁Á	-10.6778
and	-10.6778
▁Home	-10.6778
▁reserva	-10.6782
▁Marrocos	-10.6783
▁franceses	-10.6783
▁mm	-10.6785
ér	-10.6791
▁divisões	-10.6793
▁terminal	-10.6794
▁documento	-10.6797
▁cristãos	-10.68
▁fama	-10.6801
▁ópera	-10.6808
▁digitais	-10.6808
▁divulgação	-10.6808
▁criador	-10.681
▁Luz	-10.6815
▁responsáveis	-10.6818
frac	-10.6821
▁comarca	-10.6822
▁mortos	-10.6822
pus	-10.6828
▁sala	-10.6828
▁Nelson	-10.6829
▁canto	-10.6832
▁consumo	-10.6833
▁dispositivos	-10.6833
▁Rob	-10.684
wan	-10.6844
▁Beach	-10.6845
▁ajudar	-10.685
ted	-10.6851
▁atribuído	-10.6855
▁dinamarquês	-10.6855
в	-10.6858
▁High	-10.6862
▁estudar	-10.6865
▁Institute	-10.6868
rk	-10.6872
▁Matt	-10.6872
▁recebendo	-10.6877
▁milhares	-10.6883
▁influências	-10.6884
▁On	-10.6884
▁persa	-10.6885
▁Fer	-10.6891
▁moda	-10.6892
xe	-10.6893
dão	-10.6898
▁notícias	-10.6902
▁alvo	-10.6902
tivas	-10.6906
oma	-10.6907
▁ônibus	-10.6908
▁famosos	-10.6909
▁Anti	-10.6914
rada	-10.6917
▁Conidae	-10.6917
▁ligado	-10.6931
▁símbolos	-10.6933
▁dramática	-10.6934
ônio	-10.6936
▁indígenas	-10.6946
▁motivo	-10.6957
▁haviam	-10.6961
▁Pen	-10.6963
▁envolve	-10.6969
▁vencedores	-10.6972
gre	-10.6976
ning	-10.6978
▁construir	-10.6985
▁alimentos	-10.6991
nto	-10.6997
▁império	-10.7
ben	-10.7004
dan	-10.7006
gens	-10.7006
▁medidas	-10.7006
▁VIII	-10.7007
▁oitavo	-10.701
▁Renânia	-10.701
▁acontecimentos	-10.7014
▁Especial	-10.7015
▁Veg	-10.7018
▁Onthophagus	-10.7036
ab	-10.7036
ation	-10.704
▁Rose	-10.7041
▁Hugo	-10.7043
▁Tanzânia	-10.7046
▁substituindo	-10.7048
▁derrota	-10.7056
ν	-10.7065
▁assassinato	-10.7066
sol	-10.7069
▁dirigiu	-10.7072
Americana	-10.7072
▁levando	-10.7076
▁Macau	-10.7076
▁000-000.	-10.7076
ue	-10.7077
▁práticas	-10.7077
▁Port	-10.7078
▁00:00	-10.7078
▁NASA	-10.7078
▁Poaceae	-10.7078
▁câmara	-10.7079
▁Oxford	-10.7082
▁difícil	-10.7082
▁derivado	-10.7086
▁Apresenta	-10.7087
nge	-10.7089
pen	-10.7096
▁funcionários	-10.7096
▁premiação	-10.7098
▁Boston	-10.71
ray	-10.7106
ban	-10.7107
▁exibição	-10.7108
▁Good	-10.7108
▁capitão	-10.7114
▁vigor	-10.7117
Man	-10.7117
▁Rodrigo	-10.7118
nça	-10.7122
ft	-10.7123
▁envolvendo	-10.7125
nci	-10.7126
▁limitada	-10.7128
▁furacão	-10.7129
▁europeia	-10.713
▁Repert	-10.7134
stein	-10.7139
▁recentes	-10.714
▁apresentador	-10.7141
▁designar	-10.7142
▁coroa	-10.7142
▁dispositivo	-10.7144
▁dimensões	-10.7144
responsabilidade	-10.7145
▁Zo	-10.7147
▁asas	-10.7155
▁Netflix	-10.7155
▁máquina	-10.7155
bio	-10.7156
▁Sendo	-10.7157
▁pioneiro	-10.716
▁incluída	-10.7161
▁preso	-10.7163
side	-10.7164
▁baixista	-10.7168
▁Quatro	-10.7169
▁possibilidade	-10.7171
rina	-10.7173
kan	-10.7174
▁jornais	-10.7175
▁Andrew	-10.7179
▁exceção	-10.7186
▁Samuel	-10.7186
▁partículas	-10.7186
▁compostos	-10.7188
▁indicada	-10.7193
▁prt	-10.7193
▁Corpo	-10.7199
▁Tan	-10.7206
▁mapa	-10.7209
▁modernos	-10.7214
▁formal	-10.7214
mia	-10.7215
▁Bou	-10.7216
у	-10.7216
▁integrado	-10.7219
▁determinada	-10.7223
▁cristão	-10.7224
az	-10.7229
▁Engenharia	-10.7233
▁profundidade	-10.7233
▁Andrade	-10.7233
▁hora	-10.7242
onde	-10.7245
▁calor	-10.7246
▁Anderson	-10.7249
rico	-10.7252
к	-10.7255
▁Rugby	-10.7259
▁gravações	-10.7259
▁Barros	-10.7262
tino	-10.7263
álbum	-10.7265
▁Regni	-10.7267
▁centros	-10.7267
▁ativista	-10.7272
▁Forças	-10.7282
▁condecorado	-10.7285
▁Bru	-10.7289
eri	-10.729
cro	-10.729
▁ocorrem	-10.7294
▁Antiga	-10.7295
▁estende	-10.7298
▁Metrô	-10.7301
ró	-10.7304
atual	-10.7309
▁punk	-10.7311
▁estabelecer	-10.7313
▁Sudeste	-10.7317
▁integra	-10.7319
▁atravessa	-10.7322
▁cargos	-10.7326
pra	-10.7327
▁escultor	-10.7327
▁permitir	-10.7331
▁cha	-10.7332
▁Ultimate	-10.7333
▁Estreou	-10.7334
kov	-10.7334
▁videoclipe	-10.7335
▁Juventude	-10.7339
▁neerlandês	-10.7341
▁incluído	-10.7342
▁participa	-10.7343
▁específico	-10.7343
▁sinais	-10.7344
lei	-10.7351
▁Girl	-10.7352
▁Iraque	-10.7353
▁linguística	-10.7355
ska	-10.7357
▁campeões	-10.7359
▁Michigan	-10.7359
ple	-10.7361
▁notáveis	-10.7364
dri	-10.7365
▁iniciada	-10.7366
▁Governador	-10.7366
▁Wilhelm	-10.7367
yan	-10.737
yn	-10.7371
▁Conceição	-10.7372
sio	-10.7372
▁Bio	-10.7373
▁Douglas	-10.7375
▁servindo	-10.7383
▁Flora	-10.7385
▁turismo	-10.7386
▁Gui	-10.7388
▁Indiana	-10.7388
▁Power	-10.7388
▁Paula	-10.7393
▁contemporânea	-10.7395
▁Família	-10.7396
▁crime	-10.7397
▁chega	-10.7398
▁monumento	-10.7405
▁aqui	-10.7406
т	-10.7411
EP	-10.7413
▁vendidas	-10.7415
▁Encontra	-10.7417
▁substituída	-10.7417
PA	-10.7417
▁000-000)	-10.7417
]:	-10.7419
▁Gor	-10.742
▁Lagoa	-10.7424
▁utilizadas	-10.7427
▁algas	-10.7429
▁Sebastião	-10.7439
ânia	-10.744
▁entretanto	-10.744
▁finalidade	-10.7441
▁franco	-10.7442
▁usam	-10.7446
▁assistente	-10.7448
▁Física	-10.745
▁holandês	-10.745
▁culto	-10.7452
bil	-10.7455
▁Pio	-10.7456
▁perfil	-10.7456
mir	-10.7459
▁status	-10.7463
▁vídeos	-10.7468
▁argentina	-10.7471
▁produções	-10.7471
enberg	-10.7476
▁0000-0000,	-10.7481
▁estilos	-10.7482
▁Outras	-10.7482
▁criança	-10.7487
▁permitindo	-10.7487
▁iniciativa	-10.7487
▁breve	-10.7492
▁destas	-10.7492
Da	-10.7493
▁pandemia	-10.7498
▁Muitas	-10.7498
▁tido	-10.7499
▁realiza	-10.7501
Di	-10.7501
▁resultou	-10.7503
▁Jacob	-10.7508
▁fornece	-10.7509
▁masculina	-10.7509
▁Olimpíadas	-10.7511
▁Cy	-10.7511
▁Imperador	-10.7512
▁perdido	-10.7514
cker	-10.7519
▁System	-10.7519
▁Your	-10.752
▁Mil	-10.7527
▁exerceu	-10.753
▁Tornou	-10.753
▁adultos	-10.7531
▁Hy	-10.7535
▁Morreu	-10.7537
ício	-10.7539
▁compilação	-10.7541
▁eleger	-10.7543
▁nu	-10.7544
▁ATP	-10.7544
▁Coleophoridae	-10.7546
zzo	-10.755
her	-10.7552
▁Record	-10.7556
▁predominante	-10.7559
▁Calendário	-10.7562
▁expedição	-10.7563
▁certo	-10.7567
▁elevada	-10.7573
▁terá	-10.7573
▁marcado	-10.7574
▁Allen	-10.7578
▁Torres	-10.7581
▁Fundada	-10.7581
tada	-10.7584
▁introduzido	-10.7586
cula	-10.7587
▁Mestre	-10.7589
▁tela	-10.7591
▁Beih	-10.7591
▁Cat	-10.7593
▁XI	-10.7595
▁Ficou	-10.7595
▁potência	-10.7596
more	-10.7596
▁ju	-10.76
▁transferência	-10.76
Ka	-10.7602
▁Belém	-10.7615
▁tu	-10.7616
▁deixando	-10.762
zio	-10.7623
▁contos	-10.7627
▁River	-10.7629
cra	-10.7634
▁agente	-10.7635
▁talvez	-10.7638
▁Malásia	-10.7639
▁Frederico	-10.7642
▁Bernardo	-10.7645
sul	-10.7647
▁descendentes	-10.7648
▁licença	-10.7649
▁00.00"	-10.7652
yer	-10.7652
▁apresentações	-10.7652
posição	-10.7654
▁Teixeira	-10.7655
▁seriam	-10.7655
▁patrimônio	-10.766
▁Gold	-10.7666
▁estabelecida	-10.7668
▁Missouri	-10.7669
▁fu	-10.7674
▁transição	-10.7677
▁marcas	-10.7677
▁diplomata	-10.768
▁instalações	-10.7682
die	-10.7688
pal	-10.769
▁proprietário	-10.7691
ي	-10.7696
▁próprias	-10.7697
pol	-10.7697
▁contando	-10.7698
▁disputar	-10.7698
▁Barbosa	-10.7699
▁liderada	-10.7702
▁romanos	-10.7704
ˈ	-10.7706
▁dis	-10.7707
▁Capital	-10.7711
▁apresentadora	-10.7711
▁pesca	-10.7714
▁orientado	-10.7715
▁Paquistão	-10.7715
▁períodos	-10.7716
▁ajudou	-10.7721
uto	-10.7725
▁Diário	-10.7728
▁hospital	-10.7733
ld	-10.7734
AM	-10.7736
▁Linux	-10.7737
▁economista	-10.7743
▁Alfred	-10.7744
▁ativa	-10.7745
▁Var	-10.7745
▁positivas	-10.7745
gra	-10.7747
▁recém	-10.7748
quando	-10.7749
▁Guimarães	-10.7752
-0000	-10.7754
▁individuais	-10.7759
▁Roger	-10.776
mé	-10.776
▁Ac	-10.7761
▁Pessoa	-10.7762
▁intitulada	-10.777
▁Giovanni	-10.777
▁alternativa	-10.7772
sion	-10.7778
▁organismo	-10.7784
▁Vermelho	-10.7787
▁pés	-10.7789
▁Kar	-10.7791
▁Sydney	-10.7792
▁dominante	-10.7796
τ	-10.7799
▁At	-10.78
▁origens	-10.7803
▁Cap	-10.781
▁Batista	-10.7811
vol	-10.7811
▁iniciado	-10.7813
lí	-10.7814
▁variável	-10.782
pha	-10.782
▁motivos	-10.7824
geral	-10.7824
▁danos	-10.7826
pul	-10.7827
▁Serviço	-10.7829
▁Metal	-10.783
▁tabelas	-10.7833
▁Anne	-10.7838
▁combinação	-10.7839
ssi	-10.784
▁Zu	-10.7842
▁Anthony	-10.7842
Car	-10.7851
▁Video	-10.7855
▁fortemente	-10.786
▁Apple	-10.7861
▁Classe	-10.7861
não	-10.7865
▁Sá	-10.7867
▁Francis	-10.7869
▁utilizar	-10.7869
▁ficar	-10.7877
Po	-10.7878
esta	-10.7881
▁velha	-10.7882
-00,	-10.7883
▁torneios	-10.7883
▁ru	-10.7893
fu	-10.7896
eto	-10.7898
▁Walt	-10.7898
▁listas	-10.79
▁condados	-10.7901
▁gol	-10.7902
▁gente	-10.7903
▁Yo	-10.7905
gal	-10.7905
▁gráfico	-10.7908
▁agência	-10.791
▁carbono	-10.791
▁Considerando	-10.791
▁Fighting	-10.7916
▁bu	-10.7917
nik	-10.7918
▁State	-10.792
▁cientistas	-10.7923
▁Who	-10.7925
▁mon	-10.7925
▁conquistar	-10.7928
▁[0]	-10.7929
▁Irã	-10.7946
▁Ji	-10.7946
▁testes	-10.7951
▁atuar	-10.7955
▁Play	-10.7958
▁destino	-10.7959
▁pra	-10.796
▁Censo	-10.796
▁concentração	-10.7967
?,	-10.797
▁Alice	-10.7974
▁sérvio	-10.7976
▁Radio	-10.7977
▁autora	-10.7979
▁polo	-10.7979
▁assinou	-10.7982
▁exceto	-10.799
▁trabalhadores	-10.7996
▁inúmeras	-10.7999
▁geometria	-10.7999
▁Agência	-10.7999
ium	-10.8002
▁Dance	-10.8002
▁Marques	-10.8007
▁aéreo	-10.8007
bert	-10.8012
▁autoridades	-10.8014
▁}	-10.8014
▁Caribe	-10.8021
▁RTP	-10.8024
coreana	-10.8029
▁sintomas	-10.803
▁Char	-10.803
▁aumentar	-10.8032
▁Guatemala	-10.8033
▁dizer	-10.8037
▁Leo	-10.8037
▁neto	-10.8042
eu	-10.8042
▁incluir	-10.8044
Acacia	-10.8045
▁localidades	-10.8046
▁Araújo	-10.805
▁últimas	-10.8051
cle	-10.8053
▁conflitos	-10.8053
▁animado	-10.8056
▁coisas	-10.8059
▁Bros	-10.8061
▁composições	-10.8061
▁cobertura	-10.8061
ø	-10.8063
▁câncer	-10.8067
▁Veneza	-10.8075
▁piano	-10.8078
▁Gen	-10.8079
Os	-10.808
▁norueguês	-10.808
hn	-10.8081
▁Michel	-10.8081
▁literário	-10.8082
Be	-10.8083
▁Television	-10.8084
▁End	-10.8085
▁ocupou	-10.809
00.	-10.8093
cada	-10.8093
▁romances	-10.8093
pia	-10.8094
▁floresta	-10.8096
▁distribuídos	-10.8099
▁lançar	-10.8099
rm	-10.8101
▁homônima	-10.8101
▁trama	-10.8101
▁sucessão	-10.8101
▁líquido	-10.8105
▁ambiental	-10.8107
▁estrangeiros	-10.8107
▁contava	-10.8107
▁viria	-10.811
▁performance	-10.8111
▁Neo	-10.8113
íveis	-10.8114
▁gerais	-10.8115
gor	-10.8117
▁padre	-10.8117
▁orientação	-10.8119
▁cobre	-10.8121
▁0%	-10.8122
▁reúne	-10.8123
pos	-10.8126
▁Sete	-10.8131
▁cratera	-10.8136
▁limitado	-10.8141
▁Política	-10.8142
tais	-10.8142
▁britânicos	-10.8143
baixo	-10.8144
▁rádios	-10.8146
▁adaptado	-10.8148
▁desenhos	-10.8148
mato	-10.8151
ette	-10.8153
▁Fica	-10.8157
▁literária	-10.8157
▁interpretou	-10.8158
▁María	-10.8167
▁consequência	-10.8169
▁ligada	-10.8169
▁ato	-10.8169
oides	-10.8169
▁subsidiária	-10.817
▁Fla	-10.8171
▁Are	-10.8172
▁Song	-10.8174
▁Mur	-10.8175
▁oitava	-10.8175
ícia	-10.8175
▁Corte	-10.8178
▁Pelo	-10.818
RS	-10.8184
▁dar	-10.8187
elli	-10.8192
▁plataformas	-10.8194
El	-10.8196
▁negro	-10.82
▁elite	-10.8202
▁Euro	-10.8204
▁classificados	-10.8216
▁contudo	-10.8216
▁associados	-10.8217
▁humor	-10.8217
ade	-10.8218
eiros	-10.8219
▁facilmente	-10.8222
▁mudar	-10.8225
▁carnaval	-10.8227
▁Piemonte	-10.8228
▁leve	-10.8236
▁ficheiros	-10.8239
▁quinze	-10.8245
▁Stra	-10.825
▁corpos	-10.825
▁gira	-10.825
▁viver	-10.8253
▁bordo	-10.8256
▁Conferência	-10.8256
É	-10.8259
▁ucraniano	-10.8259
▁vir	-10.8259
▁Ros	-10.8265
▁Operação	-10.8267
▁petróleo	-10.8268
▁Ramos	-10.8268
Te	-10.8283
▁vírus	-10.8286
▁Juliano	-10.829
gg	-10.8291
▁acervo	-10.8291
▁frota	-10.8297
SE	-10.8299
lum	-10.8302
▁inúmeros	-10.8303
▁Estudou	-10.831
ático	-10.8313
▁organismos	-10.8315
▁permanece	-10.8316
▁Museum	-10.8319
â	-10.832
ū	-10.832
▁romena	-10.8321
▁Esp	-10.8321
San	-10.8323
▁afro	-10.8327
▁religiosas	-10.8328
▁constituição	-10.8331
▁Wolf	-10.8331
▁Wood	-10.8332
▁Chu	-10.8332
▁teatral	-10.8332
▁votação	-10.8333
▁Russo	-10.8334
ografia	-10.8338
▁go	-10.8339
▁funciona	-10.8342
▁direto	-10.8342
ile	-10.8343
▁Hal	-10.8345
▁baía	-10.8345
fal	-10.8346
▁pa	-10.8348
fra	-10.8348
▁Secretário	-10.835
▁mor	-10.8351
▁ferroviária	-10.8351
▁vencido	-10.8356
gel	-10.8357
ı	-10.8357
dale	-10.8357
fr	-10.8359
end	-10.8359
▁Século	-10.8366
▁transnetuniano	-10.8373
indo	-10.8374
Paris	-10.8374
▁Bro	-10.8375
на	-10.8376
▁ficaram	-10.8377
▁Sara	-10.8379
▁seguindo	-10.8379
▁Gmin	-10.838
▁bra	-10.8382
▁Legislativa	-10.8386
▁Templo	-10.8386
▁classes	-10.8387
▁Código	-10.8389
▁Área	-10.8389
▁Sky	-10.8393
▁Miami	-10.8398
▁Branca	-10.8399
▁Maior	-10.8401
▁Vice	-10.8401
▁alfabeto	-10.8402
▁Espacial	-10.8402
▁artificial	-10.8402
▁Minnesota	-10.8403
rais	-10.8403
▁celular	-10.8405
▁aniversário	-10.8408
Santa	-10.8411
zinho	-10.8415
▁larga	-10.8416
vida	-10.8418
▁revolta	-10.8418
nan	-10.8419
▁conceitos	-10.842
▁Situa	-10.8424
enda	-10.8425
▁literalmente	-10.8425
▁Ron	-10.8426
rí	-10.8427
▁0000/0000	-10.8431
▁habita	-10.8434
▁Caio	-10.8435
▁monte	-10.8438
▁terreno	-10.8442
▁introdução	-10.8444
gin	-10.8445
▁Carnaval	-10.845
inos	-10.8452
log	-10.8456
▁redução	-10.8457
▁serra	-10.846
▁Ste	-10.8464
▁Kra	-10.8465
▁compra	-10.8465
▁Bandeira	-10.8467
nal	-10.8468
fre	-10.847
ori	-10.847
▁Gro	-10.8472
▁manda	-10.8473
▁Troféu	-10.8476
▁Digital	-10.8476
▁God	-10.8477
▁Dark	-10.8477
tória	-10.8478
▁altas	-10.8479
▁espiritual	-10.8484
▁Way	-10.8484
▁barrada	-10.8485
▁exemplos	-10.8488
▁crescente	-10.8488
ello	-10.849
▁atmosfera	-10.8491
ky	-10.8491
AC	-10.8494
▁Campinas	-10.8495
kar	-10.8496
▁Maia	-10.85
▁equipas	-10.8508
▁hop	-10.8508
▁indo	-10.8511
▁ciclone	-10.8511
▁Vasco	-10.8512
▁Jane	-10.8519
▁po	-10.852
ap	-10.852
PR	-10.852
▁pianista	-10.8521
▁aceita	-10.8522
▁Essas	-10.8525
▁expressa	-10.8527
▁escritores	-10.8528
és	-10.8528
▁trecho	-10.8531
▁centenas	-10.8532
▁Journal	-10.8536
pes	-10.8536
IC	-10.8543
▁indicação	-10.8543
▁UFC	-10.8543
IS	-10.8544
▁Township	-10.8545
gli	-10.8549
▁audiência	-10.8549
▁00.0′′	-10.8551
▁marcada	-10.8554
stri	-10.8556
ial	-10.8559
▁dura	-10.856
▁Poli	-10.856
▁romântica	-10.8566
▁fábrica	-10.8567
▁conselho	-10.8568
▁escocês	-10.8568
▁Mir	-10.857
▁natação	-10.8574
▁Milão	-10.8576
▁Dentre	-10.8578
▁livres	-10.8578
Londres	-10.8579
▁Cardoso	-10.8581
▁amplo	-10.8581
▁apresentando	-10.8583
rt	-10.8584
▁bloco	-10.8586
▁consideradas	-10.8586
▁Rosaceae	-10.8587
pop	-10.859
ring	-10.8591
ción	-10.8597
▁ganhando	-10.8597
▁Free	-10.8598
▁Lançado	-10.8598
▁Web	-10.8601
▁Projeto	-10.8604
▁spin	-10.8604
▁patinação	-10.8604
▁treze	-10.8605
▁Circuito	-10.8606
▁á	-10.8609
▁aglomerado	-10.8611
▁Abu	-10.8614
▁considera	-10.8615
▁búlgaro	-10.8616
hy	-10.8619
▁diante	-10.862
▁serão	-10.8622
▁Jon	-10.8622
▁interesses	-10.8631
▁visita	-10.8634
▁populações	-10.8634
▁Fora	-10.8636
AR	-10.8636
▁eleitoral	-10.8636
ônia	-10.8641
▁pedido	-10.8643
▁americanos	-10.8643
▁representado	-10.8644
▁British	-10.8647
Mi	-10.8647
▁assinado	-10.8647
stre	-10.8648
▁Panamá	-10.8652
▁UICN	-10.8652
▁atrações	-10.8653
▁restantes	-10.8657
sal	-10.8657
▁cima	-10.8657
▁diocese	-10.8659
▁planos	-10.866
▁rap	-10.8662
▁aparência	-10.8665
etti	-10.8667
▁determinar	-10.8673
Fa	-10.8679
▁Antigo	-10.8682
▁pesquisador	-10.8686
ator	-10.8687
▁Tai	-10.8692
▁chamar	-10.8692
ônica	-10.8695
▁termina	-10.8697
▁gra	-10.8697
▁Prix	-10.8697
▁marinha	-10.8699
▁instalação	-10.8701
▁face	-10.8702
▁entretenimento	-10.8707
▁mecanismo	-10.8708
ES	-10.8708
▁Sudão	-10.8708
▁certa	-10.8711
▁aquele	-10.8713
▁00.0"	-10.8713
▁Garcia	-10.8715
▁himenópteros	-10.8719
▁moeda	-10.8721
▁genética	-10.8725
▁Comunicação	-10.8725
▁vegetação	-10.8725
▁Barão	-10.8726
▁Sor	-10.8726
▁Alma	-10.8726
MS	-10.8731
▁fases	-10.8733
▁historiadores	-10.8734
▁Sea	-10.8735
▁possíveis	-10.8737
PT	-10.8739
ene	-10.8741
▁Der	-10.8745
▁objetivos	-10.8745
▁Testamento	-10.8747
▁ISO	-10.8748
▁Project	-10.875
▁Ram	-10.8753
▁liderado	-10.876
▁rápida	-10.8764
▁inativa	-10.8764
▁Dragon	-10.8767
▁registros	-10.8767
▁Angra	-10.8769
▁Baviera	-10.8774
▁Bragança	-10.8774
mb	-10.8774
Ta	-10.8775
▁lucrativos	-10.8784
▁Gama	-10.8787
▁foguete	-10.8788
▁acredita	-10.8789
vas	-10.8789
▁Outro	-10.8792
▁liderou	-10.8792
ə	-10.8796
ر	-10.8799
▁fé	-10.88
▁destacam	-10.8801
▁culturas	-10.8801
▁retirada	-10.8803
▁beisebol	-10.8804
▁fictício	-10.8804
ctor	-10.8805
lie	-10.8806
▁reis	-10.8809
cil	-10.8812
▁Pública	-10.8813
ña	-10.8814
▁YouTube	-10.8817
▁caracterizada	-10.8818
▁senhor	-10.882
if	-10.882
▁referências	-10.8821
▁naval	-10.8822
▁inverno	-10.8823
ç	-10.8826
▁Sob	-10.8829
▁cemitério	-10.8829
▁Helena	-10.8829
▁encontro	-10.8831
▁diferenças	-10.8832
Em	-10.8832
▁Guiana	-10.8835
▁mosteiro	-10.8835
usa	-10.8838
eb	-10.8844
▁clientes	-10.8846
ótica	-10.8846
▁maestro	-10.8847
▁Cri	-10.8848
IP	-10.8851
▁nomeadamente	-10.8853
▁administrador	-10.8856
ire	-10.8859
▁Mediterrâneo	-10.886
▁Esses	-10.8861
▁Son	-10.8862
cionais	-10.8863
aram	-10.8866
ós	-10.8868
▁indígena	-10.8869
▁atuando	-10.887
RA	-10.8871
inger	-10.8871
▁Nick	-10.8871
▁trabalhando	-10.8872
▁Fire	-10.8874
▁possuindo	-10.8881
▁assumir	-10.8882
▁federais	-10.8884
heim	-10.8885
▁coloração	-10.8885
▁Mira	-10.8889
my	-10.889
▁Ganhou	-10.8891
▁Patrick	-10.8891
nais	-10.8892
▁clássicos	-10.8892
▁Localização	-10.8894
▁permanente	-10.8897
▁Fort	-10.8897
ual	-10.8898
▁Trabalhou	-10.8903
▁Assis	-10.8903
▁disputados	-10.8906
▁Ly	-10.8909
▁carioca	-10.8909
▁Rita	-10.8911
▁café	-10.8916
▁alterações	-10.8916
▁suficiente	-10.8922
▁intenção	-10.8922
cock	-10.8925
▁médica	-10.8925
▁falantes	-10.8926
▁experiências	-10.8928
▁espaços	-10.8931
▁un	-10.8931
▁conto	-10.8933
yl	-10.8937
▁Filme	-10.8938
▁ocasiões	-10.8946
▁vereador	-10.8953
▁Galiza	-10.8953
ae	-10.8957
▁Rica	-10.8958
▁Argélia	-10.8959
▁Todas	-10.8959
stru	-10.896
▁Ul	-10.8963
▁teorema	-10.8965
▁designa	-10.8966
▁geográfica	-10.897
▁continental	-10.8971
cina	-10.8973
ε	-10.8974
▁Rico	-10.8975
▁teorias	-10.8979
▁crimes	-10.8979
▁nós	-10.898
▁primeiramente	-10.8989
▁pseudônimo	-10.8994
▁premiado	-10.8997
sin	-10.8999
▁poema	-10.9002
SA	-10.9003
▁códigos	-10.9005
Go	-10.9007
AP	-10.9007
▁poderes	-10.9011
▁Administração	-10.9015
▁ausência	-10.9015
▁lu	-10.9016
▁Christopher	-10.9016
ret	-10.9019
form	-10.9021
▁entidades	-10.9022
▁tomou	-10.9025
▁Veja	-10.9025
eno	-10.9026
▁Junior	-10.9027
ert	-10.9028
▁alcançando	-10.9029
▁Base	-10.903
▁representam	-10.9033
▁Pai	-10.9035
▁mínimo	-10.904
bb	-10.9041
cano	-10.9043
▁Shin	-10.9047
▁Nasceu	-10.905
▁Camp	-10.905
riam	-10.9053
cial	-10.9054
gado	-10.9058
▁Marc	-10.9059
▁duplo	-10.9059
▁Bank	-10.906
tr	-10.9062
ala	-10.9062
▁áudio	-10.9065
▁coração	-10.9066
▁Colorado	-10.9066
ios	-10.9076
▁Ivan	-10.9077
▁Orquestra	-10.9077
▁povoado	-10.908
▁regra	-10.9081
▁00.0	-10.9081
chu	-10.9083
▁Patinação	-10.9084
▁dramaturgo	-10.9084
▁jurista	-10.9084
wo	-10.9088
-00.	-10.909
▁Neto	-10.9091
▁Geralmente	-10.9091
▁olhos	-10.9095
▁Chico	-10.91
▁Pri	-10.9101
▁sur	-10.9101
bor	-10.9101
▁SP	-10.9107
▁definir	-10.9108
▁vereadores	-10.9109
▁meta	-10.9109
ligação	-10.911
▁Sp	-10.911
▁aprovada	-10.9113
▁ideal	-10.9114
▁idiomas	-10.9117
▁chegaram	-10.9118
▁inteiro	-10.9119
▁Post	-10.9121
▁parlamento	-10.9122
hangul	-10.9122
▁tenista	-10.9125
▁comediante	-10.9128
▁z	-10.9128
▁influenciado	-10.9129
dé	-10.913
vá	-10.9132
▁Racing	-10.9135
CO	-10.9136
▁Ryan	-10.9144
oficialmente	-10.9151
▁plástico	-10.9154
ota	-10.9156
▁Ou	-10.9156
ary	-10.9161
▁Kevin	-10.9162
▁Kansas	-10.9164
▁relacionada	-10.9166
▁volante	-10.9167
▁ditadura	-10.9172
▁Sicília	-10.9179
▁exemplares	-10.9181
▁Povo	-10.9182
▁deveria	-10.9183
▁tradições	-10.9185
▁foto	-10.9185
▁Fame	-10.9186
▁próximos	-10.9186
ture	-10.9186
▁diretora	-10.9187
governador	-10.9189
▁gene	-10.9191
▁santo	-10.9191
▁domingo	-10.9194
ille	-10.9195
vers	-10.9196
▁Democrático	-10.9198
▁Kuiper	-10.9198
▁Magalhães	-10.9198
▁nave	-10.9198
▁hidro	-10.9199
▁brasileiras	-10.92
▁prémio	-10.92
ence	-10.9203
ale	-10.9204
▁Teresa	-10.9205
▁bases	-10.9205
▁jogadora	-10.9205
ificação	-10.9205
dica	-10.9206
ل	-10.9208
▁hiper	-10.921
▁Arquidiocese	-10.921
▁Luxemburgo	-10.921
▁religiosos	-10.9211
eiras	-10.9214
▁Capela	-10.9214
▁longas	-10.9215
▁criados	-10.9216
▁Decreto	-10.9216
▁Etiópia	-10.9217
▁pilotos	-10.9221
▁hectares	-10.9223
▁segmentos	-10.9226
▁irlandês	-10.9227
▁cara	-10.9228
▁Sala	-10.9228
▁Britânico	-10.923
▁Ch	-10.9235
▁satélites	-10.924
▁drogas	-10.9243
▁anuro	-10.9245
Pro	-10.9246
FA	-10.9246
▁Resultados	-10.9249
▁reality	-10.925
▁Doutor	-10.925
▁peruano	-10.9262
▁Russa	-10.927
chinês	-10.9272
▁mesa	-10.9273
▁Tel	-10.9273
▁viagens	-10.9275
ama	-10.928
▁Singles	-10.928
Ho	-10.9287
▁você	-10.9287
▁aviões	-10.9289
▁governos	-10.9289
tim	-10.9291
▁Jay	-10.9294
BA	-10.9295
و	-10.9298
▁conquistando	-10.93
▁derrotou	-10.93
▁juntos	-10.93
▁Quinta	-10.9301
lau	-10.9303
▁relacionamento	-10.9305
▁Donald	-10.9309
Palatinado	-10.931
)"	-10.9313
▁ferramentas	-10.9314
▁Kelly	-10.9314
▁Azul	-10.9315
▁Line	-10.9319
▁rosácea	-10.9319
ett	-10.9324
▁labelo	-10.9326
▁Fazenda	-10.9327
▁casal	-10.9327
▁SBT	-10.9328
▁estúdios	-10.933
▁Flamengo	-10.9332
ngo	-10.9333
▁ocorrência	-10.9336
▁Jam	-10.9339
▁Phil	-10.9339
▁amarelo	-10.9341
▁define	-10.9341
▁aspecto	-10.9343
mática	-10.9348
▁integração	-10.9349
▁proteínas	-10.9349
▁Afeganistão	-10.9352
▁Artística	-10.9352
▁Fé	-10.9355
lip	-10.9356
▁verdadeiro	-10.9356
sc	-10.9359
burgo	-10.936
";	-10.9363
▁pinyin	-10.9365
ego	-10.9367
▁tecido	-10.937
▁encerrou	-10.9371
▁razões	-10.9371
tio	-10.9374
cla	-10.9376
▁0000-0000)	-10.9377
ônico	-10.9378
▁HD	-10.938
▁seguiu	-10.9384
▁frase	-10.9392
▁Road	-10.9394
▁declarou	-10.9397
▁conquistado	-10.9399
▁toneladas	-10.9404
▁game	-10.9405
elle	-10.9405
▁Fundado	-10.9408
▁receberam	-10.9408
▁resolução	-10.941
▁Frente	-10.9412
▁Science	-10.9412
▁criando	-10.9416
▁Johannes	-10.9419
▁More	-10.9427
▁mapas	-10.9429
DA	-10.9432
ay	-10.9434
▁Carioca	-10.9436
zen	-10.9438
▁separação	-10.9438
▁cresceu	-10.944
▁Iniciou	-10.9443
uni	-10.9444
▁Mateus	-10.945
▁Acre	-10.9458
rit	-10.9459
▁Flores	-10.9461
▁Filosofia	-10.9462
▁continuação	-10.9463
▁enviado	-10.9465
▁concertos	-10.9465
▁professores	-10.9466
▁Productions	-10.9467
▁pessoais	-10.9468
▁designer	-10.9469
▁república	-10.9469
canção	-10.9473
▁Cai	-10.9475
▁Research	-10.9476
▁Logo	-10.9479
▁Outra	-10.9482
▁Libertadores	-10.9483
▁Story	-10.9487
▁Lou	-10.9487
▁fatos	-10.9491
о	-10.9492
▁pesquisadores	-10.9492
▁Independência	-10.9495
▁ordens	-10.9496
▁demanda	-10.9496
▁matriz	-10.9497
ive	-10.9498
shire	-10.95
▁Vermelha	-10.9502
▁variáveis	-10.9502
▁Jovem	-10.9502
▁substância	-10.9502
jar	-10.9503
▁universal	-10.9505
uch	-10.9507
▁Coelho	-10.9508
ique	-10.9509
▁Iowa	-10.951
▁especializado	-10.9512
▁Padre	-10.9516
▁interno	-10.9516
▁Venceu	-10.9521
▁Acalypha	-10.9528
▁lança	-10.9528
ilo	-10.9532
▁Jacques	-10.9533
ika	-10.9535
▁fabricação	-10.9536
ag	-10.9539
ن	-10.954
▁Ciclismo	-10.9541
▁camada	-10.9547
▁repertório	-10.9548
▁Basketball	-10.9548
▁círculo	-10.9552
▁000,000	-10.9555
▁estratégia	-10.9555
▁tio	-10.9557
▁aborda	-10.9557
▁Taiwan	-10.9561
▁Mega	-10.9567
▁Heinrich	-10.9567
▁parcialmente	-10.9571
▁Mesmo	-10.9576
י	-10.9577
▁Bus	-10.9577
▁barão	-10.9577
nti	-10.9578
▁Gelo	-10.9579
▁minissérie	-10.9581
eus	-10.9582
hen	-10.9584
▁Fri	-10.9588
of	-10.9593
ai	-10.9595
ovich	-10.9599
▁máquinas	-10.96
Fi	-10.9601
▁defender	-10.9608
ui	-10.9612
▁trás	-10.9614
▁Vargas	-10.9614
▁Duarte	-10.9614
▁caracteriza	-10.9615
ute	-10.9616
▁Manaus	-10.9618
▁romântico	-10.962
▁voos	-10.9622
bach	-10.9623
▁Viana	-10.9627
▁prazo	-10.9628
▁Estrela	-10.963
ec	-10.9632
Ja	-10.9633
▁orçamento	-10.9639
▁certos	-10.964
ição	-10.9642
▁circulação	-10.9642
rim	-10.9644
pas	-10.9647
pel	-10.9648
ál	-10.9648
▁distintas	-10.9651
SS	-10.9653
▁Cole	-10.9656
ة	-10.9661
▁Mala	-10.9663
▁Au	-10.9664
▁componente	-10.967
▁parcial	-10.967
▁armênio	-10.9674
▁fornecer	-10.9675
▁Sho	-10.9677
▁Prata	-10.9678
▁Gre	-10.9679
▁À	-10.9691
▁céu	-10.9692
▁Henri	-10.9692
ides	-10.9693
▁Prefeitura	-10.9694
▁tomar	-10.9694
▁editado	-10.9695
▁paróquia	-10.9698
▁Arctiidae	-10.97
▁poemas	-10.9701
▁Baía	-10.9702
ião	-10.9705
▁Zé	-10.9707
▁Reading	-10.9707
▁Saxônia	-10.9707
▁Rolling	-10.971
▁00,00%	-10.971
▁assunto	-10.9711
▁saber	-10.9712
oc	-10.9713
▁sagrou	-10.9714
pon	-10.9715
▁paralelo	-10.9718
▁Gran	-10.9718
▁rendeu	-10.9721
▁Fal	-10.9721
ί	-10.9721
▁NBC	-10.9723
▁geo	-10.9724
dre	-10.9725
▁estudiosos	-10.9727
▁Uganda	-10.9727
real	-10.9728
▁GUS	-10.973
▁altos	-10.9731
dade	-10.9731
▁justiça	-10.9734
corre	-10.9734
▁inicia	-10.9736
▁propósito	-10.9738
ná	-10.9739
▁competir	-10.9739
▁CBS	-10.974
▁destinado	-10.9742
enta	-10.9743
▁mini	-10.9744
▁presidencial	-10.9746
▁Literatura	-10.9747
▁adquiriu	-10.9747
CA	-10.9748
▁compõem	-10.9754
▁ondas	-10.9754
▁elíptica	-10.9754
▁causou	-10.9754
▁situações	-10.9758
▁alcance	-10.9761
▁elevação	-10.9762
▁folha	-10.9765
né	-10.9767
▁Azevedo	-10.9768
▁fixa	-10.9771
▁resultando	-10.9773
▁aliança	-10.9775
ância	-10.9778
▁falecido	-10.9781
▁USA	-10.9782
▁intelectual	-10.9786
▁Wall	-10.9788
▁inspirada	-10.9795
▁Moore	-10.9799
cão	-10.98
▁Kan	-10.98
med	-10.9801
▁concedida	-10.9801
▁Alemão	-10.9808
▁familiar	-10.9809
ric	-10.981
▁inspiração	-10.981
▁graduação	-10.9811
tismo	-10.9812
▁Res	-10.9813
▁reunião	-10.9815
▁Património	-10.9815
▁próximas	-10.9818
▁milhas	-10.9819
▁vencida	-10.9822
▁inteligência	-10.9824
▁primo	-10.9824
▁constituem	-10.9824
▁passo	-10.9827
▁animada	-10.9828
▁Queen	-10.9828
▁Fluminense	-10.9828
▁invés	-10.9828
Ne	-10.9834
▁trem	-10.9834
Orchidaceae	-10.9836
▁deserto	-10.9836
▁destacou	-10.9836
fen	-10.9838
م	-10.9838
▁Otto	-10.9842
▁arquivo	-10.9844
▁Ren	-10.9847
▁ten	-10.9848
δ	-10.985
▁Lim	-10.9851
▁Sporting	-10.9853
▁Law	-10.9854
▁Americano	-10.986
▁moral	-10.986
▁laterais	-10.9862
▁capítulo	-10.9864
▁grama	-10.9865
▁Gri	-10.9866
▁pares	-10.9867
riana	-10.9867
lista	-10.9868
MA	-10.987
▁esqui	-10.9872
▁Atlanta	-10.9877
▁desenvolve	-10.988
▁tecnologias	-10.9881
▁Lan	-10.9882
▁anunciada	-10.9886
ا	-10.9886
▁Premier	-10.9886
▁#00	-10.9887
▁doutrina	-10.9889
deira	-10.9891
▁hino	-10.9894
▁Meu	-10.9895
м	-10.9897
▁Steven	-10.9899
ónica	-10.9899
▁descrição	-10.9902
▁Esportes	-10.9904
ciano	-10.9904
▁juntou	-10.9905
▁Monteiro	-10.9907
▁Arts	-10.9907
ş	-10.9908
chefe	-10.9908
bilidade	-10.9909
▁Jun	-10.9912
▁imigrantes	-10.9914
▁culinária	-10.9917
▁japoneses	-10.9917
▁Genebra	-10.9917
sar	-10.9918
▁Micro	-10.9919
▁estrangeiro	-10.9924
▁Sergipe	-10.9924
▁imediatamente	-10.9925
pla	-10.9929
▁afirmou	-10.9931
▁Im	-10.9931
ate	-10.9932
▁amadores	-10.9937
▁j	-10.9937
▁proteger	-10.9937
grad	-10.9939
ping	-10.9939
tto	-10.9942
ef	-10.9942
una	-10.9943
▁Ph	-10.9943
▁Negra	-10.9944
ques	-10.9949
▁Howard	-10.9952
▁substituir	-10.9956
có	-10.9957
▁Oklahoma	-10.9959
▁aplicado	-10.9962
▁Florença	-10.9963
inus	-10.9965
▁pétalas	-10.9972
▁Hotel	-10.9973
▁esforços	-10.9975
▁administrado	-10.9979
▁citado	-10.998
▁rica	-10.998
▁guia	-10.9981
▁Samba	-10.9981
▁Montreal	-10.9981
far	-10.9983
▁Dal	-10.9984
▁tocar	-10.9985
▁preservação	-10.9987
tribu	-10.9989
▁Forma	-10.9989
▁sacerdote	-10.999
▁Neves	-10.9993
▁interação	-10.9996
gé	-10.9996
lic	-10.9997
▁monarquia	-10.9999
rat	-11
▁baseados	-11.0006
▁Catalogue	-11.0006
▁similares	-11.001
▁Call	-11.001
▁Heart	-11.0013
▁Constantino	-11.0016
▁Florianópolis	-11.0019
ž	-11.002
▁herói	-11.0024
▁Domingos	-11.0024
▁Java	-11.0025
▁pu	-11.0026
▁Spa	-11.0026
▁Croácia	-11.0027
▁lados	-11.0028
▁Australia	-11.003
Pe	-11.0033
▁cadeira	-11.0037
▁Bla	-11.0039
▁seção	-11.0041
lica	-11.0041
▁Bull	-11.0042
Can	-11.0043
▁particulares	-11.0044
▁0000-00.	-11.0045
ks	-11.0047
PE	-11.0047
▁mamíferos	-11.0051
dura	-11.0053
▁areia	-11.0053
▁rea	-11.0053
▁Duas	-11.0055
ópolis	-11.0057
▁Vin	-11.0061
▁Grêmio	-11.0062
▁meridiano	-11.0062
adores	-11.0062
▁substituição	-11.0063
▁cur	-11.0064
▁raio	-11.0064
▁Annual	-11.0069
Com	-11.0072
▁Rui	-11.0072
▁Ferroviária	-11.0076
chen	-11.0076
▁Fin	-11.0081
▁Sy	-11.0083
lino	-11.0083
▁00,000	-11.0086
▁existir	-11.0087
▁intensidade	-11.009
▁estreito	-11.009
▁Coroa	-11.0094
▁Manda	-11.0098
Lu	-11.0098
tidae	-11.0099
▁comparação	-11.0104
▁exposições	-11.0104
▁psicologia	-11.0105
▁vindo	-11.0106
idos	-11.0108
ude	-11.0108
eg	-11.0109
▁modalidades	-11.0111
▁Den	-11.0114
feld	-11.0116
▁ocupado	-11.0119
▁0,0%	-11.0119
▁orquídeas	-11.012
▁vítima	-11.012
ichi	-11.0122
Pi	-11.0123
▁Coração	-11.0124
▁integrar	-11.0126
ianos	-11.013
▁hóquei	-11.0131
▁atos	-11.0132
▁humanidade	-11.0132
▁cantores	-11.0137
ath	-11.0139
▁juiz	-11.014
▁Bot	-11.0141
▁ال	-11.0141
▁Leonardo	-11.0144
▁vespas	-11.0145
▁tentou	-11.0146
▁Pinheiro	-11.015
▁Ann	-11.0151
▁possuir	-11.0152
▁eventualmente	-11.0153
▁Democrata	-11.0153
ра	-11.0156
thi	-11.0156
iti	-11.0158
anos	-11.0158
▁salas	-11.016
▁cauda	-11.0164
▁Miller	-11.0165
ub	-11.0165
▁variação	-11.0165
nca	-11.0165
▁ITIS	-11.0166
▁disciplina	-11.0167
▁esforço	-11.017
ë	-11.0174
água	-11.0176
iga	-11.0177
cara	-11.0178
▁falado	-11.0178
▁adotado	-11.0182
nio	-11.0184
▁influentes	-11.0184
▁Latino	-11.0187
▁mantendo	-11.0188
▁molecular	-11.0189
▁Jason	-11.0193
▁Cle	-11.0194
▁Virgínia	-11.0195
▁Martindale	-11.0195
lado	-11.0197
▁vs	-11.02
▁Sobre	-11.0201
▁Matemática	-11.0202
▁Xavier	-11.0202
▁abordagem	-11.0202
uda	-11.0211
▁nada	-11.0212
dina	-11.0214
spec	-11.0214
▁auxiliar	-11.0218
▁objectivo	-11.0223
nova	-11.0223
▁mesmos	-11.0225
▁cartas	-11.0227
▁garantir	-11.0227
▁McC	-11.0228
▁precisamente	-11.0228
ball	-11.0229
▁dominical	-11.023
SI	-11.0237
▁concluída	-11.0237
▁Songs	-11.0239
▁possam	-11.0244
▁pagamento	-11.0247
zy	-11.0247
▁Hamilton	-11.0248
ílio	-11.0249
▁dependendo	-11.025
berto	-11.025
▁fácil	-11.0251
π	-11.0252
▁Velha	-11.0253
bit	-11.0264
▁Cláudio	-11.0265
▁marcha	-11.0266
▁específica	-11.0266
▁campanhas	-11.0267
▁Design	-11.0268
▁Noite	-11.0271
▁Armênia	-11.0272
▁000000	-11.0274
▁Capitão	-11.0275
▁residentes	-11.0276
▁Lourenço	-11.0276
▁nota	-11.0277
▁agentes	-11.0279
▁Vietnã	-11.0279
▁destruição	-11.0279
▁exercício	-11.0292
▁término	-11.0293
▁ferramenta	-11.0299
▁Down	-11.0301
▁terminando	-11.0301
▁Planet	-11.0302
▁Liberal	-11.0303
MC	-11.0304
nismo	-11.0305
▁gama	-11.0307
▁Moreira	-11.031
▁hi	-11.0314
▁Arábia	-11.0315
▁europeias	-11.0316
ward	-11.0316
▁Mineiro	-11.0317
▁vento	-11.0318
▁#0	-11.0319
dd	-11.032
▁consta	-11.032
▁catalão	-11.0322
▁ho	-11.0324
lam	-11.0324
▁leitura	-11.0326
č	-11.0326
▁ruínas	-11.0328
hal	-11.0329
▁instalada	-11.0329
▁cantada	-11.0331
▁Mé	-11.0331
▁levaram	-11.0332
▁Get	-11.0333
▁Trabalho	-11.0336
▁ligados	-11.0337
▁caiu	-11.0342
▁biologia	-11.0343
Bi	-11.0343
▁pastor	-11.0346
char	-11.0352
▁eletro	-11.0353
▁Gordon	-11.0355
▁simultaneamente	-11.0358
▁Alpes	-11.0361
▁Futsal	-11.0365
▁moderada	-11.0365
▁Japan	-11.0366
▁Castel	-11.0367
nar	-11.0373
mm	-11.0374
iba	-11.0374
▁Kor	-11.0377
▁causas	-11.038
▁teólogo	-11.038
▁visitantes	-11.0381
▁Hell	-11.0384
▁automóveis	-11.0386
▁entregue	-11.0388
▁Belas	-11.0388
▁Sh	-11.0394
▁Leon	-11.0395
▁Hay	-11.0399
▁entra	-11.0399
▁transl	-11.0399
▁cristianismo	-11.0401
▁proeminente	-11.0401
ém	-11.0402
AT	-11.0402
poli	-11.0403
▁casada	-11.0403
▁eixo	-11.0404
Coleophora	-11.0405
▁Roman	-11.0408
▁avaliação	-11.0409
▁mortes	-11.0409
▁pena	-11.041
▁fer	-11.0411
▁Franz	-11.0413
▁provável	-11.0415
▁visa	-11.0417
▁°	-11.0421
▁rodada	-11.0422
▁financeiro	-11.0423
▁curtas	-11.0423
▁proposto	-11.0425
▁administrativo	-11.0426
▁leite	-11.0427
ies	-11.0431
cin	-11.0431
▁vítimas	-11.0433
▁Gustavo	-11.0435
rom	-11.0435
▁GP	-11.0436
▁Lady	-11.0439
▁substâncias	-11.0443
▁vapor	-11.0444
▁diagnóstico	-11.0445
▁Correia	-11.0447
▁iniciais	-11.0448
incluindo	-11.0449
▁Back	-11.0449
▁Shu	-11.045
▁lenda	-11.0454
itas	-11.0454
▁Alagoas	-11.0454
▁contratado	-11.0457
▁tribos	-11.0457
plo	-11.0458
▁Índice	-11.0458
▁endêmica	-11.0458
▁Arizona	-11.0458
▁Wi	-11.0459
▁vermelha	-11.046
▁Water	-11.0461
▁combustível	-11.0461
Eu	-11.0463
▁Wal	-11.0464
▁construídos	-11.0464
▁Clark	-11.0468
▁quer	-11.0472
chan	-11.0473
▁bola	-11.0475
▁Naval	-11.0477
ís	-11.0478
New	-11.0479
und	-11.048
▁Rom	-11.0481
▁obtido	-11.0482
▁Franklin	-11.0483
▁permitiu	-11.0487
▁entrega	-11.0491
cent	-11.0491
bat	-11.0492
▁Checklist	-11.0494
En	-11.0495
▁claro	-11.0496
▁Mau	-11.0497
ór	-11.0498
▁descendente	-11.0499
▁mandatos	-11.0499
▁compositores	-11.05
▁certas	-11.0501
▁Ala	-11.0502
Bu	-11.0503
▁Fred	-11.0504
▁vencendo	-11.0504
▁longe	-11.0504
ês	-11.0508
▁acompanhado	-11.0508
▁alguém	-11.0509
▁revolução	-11.0509
▁Mr	-11.051
▁Bispo	-11.0512
▁equilíbrio	-11.0516
▁Pedra	-11.0518
▁especialistas	-11.052
ayback	-11.052
▁Chan	-11.0521
▁colocados	-11.0521
Or	-11.0522
▁Carta	-11.0523
▁qui	-11.0525
▁Clara	-11.0525
▁publicadas	-11.0531
▁fictícia	-11.0538
▁Felipe	-11.0538
ere	-11.0539
▁virtual	-11.0542
▁preço	-11.0542
▁restante	-11.0548
▁causada	-11.0552
Ga	-11.0552
▁clã	-11.0553
▁ramos	-11.0555
▁desconhecida	-11.0557
▁Hills	-11.0557
▁intervenção	-11.056
cidade	-11.0563
entre	-11.0563
igo	-11.0564
nel	-11.0565
▁ge	-11.0566
▁quarenta	-11.0567
▁Rap	-11.0569
▁observação	-11.0569
▁vias	-11.0572
▁riqueza	-11.0574
▁new	-11.0575
rick	-11.0576
æ	-11.0577
▁projetada	-11.0578
tom	-11.058
▁Mix	-11.058
ries	-11.058
anda	-11.0581
▁Só	-11.0581
▁desenhada	-11.0585
▁Espanhola	-11.0586
▁0000-00,	-11.0588
▁engloba	-11.0589
▁aplicada	-11.059
▁Rick	-11.059
▁neuro	-11.0593
▁trouxe	-11.0593
▁fósseis	-11.0593
▁Caetano	-11.0596
▁Fonseca	-11.0596
▁Alexandria	-11.0596
▁voto	-11.0597
▁negra	-11.0598
▁muita	-11.0599
▁tipicamente	-11.0604
▁Bowl	-11.0605
▁Nunes	-11.0605
▁ameaça	-11.0608
▁populoso	-11.0611
▁divisa	-11.0611
▁Bruce	-11.0612
ick	-11.0612
▁XXI	-11.0613
St	-11.0615
▁Dream	-11.0615
▁ambientes	-11.0615
▁influente	-11.0616
▁variante	-11.0617
▁sobrinho	-11.062
▁Mus	-11.0623
▁largo	-11.0623
▁Laura	-11.0624
▁judaica	-11.0626
▁integrada	-11.0626
▁Fun	-11.0627
elo	-11.0627
▁variações	-11.0629
▁Contra	-11.063
▁depende	-11.063
я	-11.0632
▁Tocantins	-11.0633
▁soluções	-11.0633
▁ocasionalmente	-11.0634
▁tomada	-11.0636
▁download	-11.0637
▁Anos	-11.0638
▁consideram	-11.0639
▁cria	-11.0644
▁Madonna	-11.0648
▁Reserva	-11.0648
▁Victoria	-11.0649
zzi	-11.0649
▁vol	-11.0649
▁Industrial	-11.0651
gou	-11.0651
▁Memorial	-11.0655
▁submarino	-11.0655
▁Fre	-11.0657
▁curva	-11.0658
▁console	-11.0659
▁Mali	-11.066
▁Benjamin	-11.0663
▁chamou	-11.0663
▁wrestling	-11.0663
▁fruto	-11.0666
▁Tennessee	-11.0668
▁notas	-11.067
▁perigo	-11.0673
▁François	-11.0675
▁Alfredo	-11.0676
gri	-11.0676
OL	-11.0677
house	-11.0682
▁privado	-11.0682
▁patrocínio	-11.0685
▁tom	-11.0685
▁palestrante	-11.0685
▁Light	-11.0686
▁iria	-11.0686
▁ka	-11.0687
▁proteína	-11.0687
▁Asiático	-11.069
gro	-11.069
▁Golden	-11.0691
▁escultura	-11.0693
OR	-11.0694
▁protagonizado	-11.0695
tron	-11.0696
▁identificação	-11.0702
▁conquistas	-11.0702
zes	-11.0705
▁porção	-11.0705
▁fossem	-11.0707
▁County	-11.0708
▁Diretor	-11.0708
▁CP	-11.0717
cht	-11.0719
▁tele	-11.0722
▁portas	-11.0724
▁filmado	-11.0724
vé	-11.0725
▁Cra	-11.0726
▁pen	-11.0731
SC	-11.0731
mis	-11.0731
▁Wayne	-11.0733
▁requer	-11.0736
▁Dun	-11.0736
Melhor	-11.0736
bla	-11.0737
▁SS	-11.0741
▁Pas	-11.0742
▁estrelada	-11.0745
▁irá	-11.0745
▁Mariana	-11.0747
▁perspectiva	-11.075
▁fo	-11.075
▁col	-11.0753
▁California	-11.0755
▁Masculino	-11.0759
▁hit	-11.076
US	-11.076
▁retrata	-11.0763
une	-11.0766
▁0.000.000	-11.0767
▁financeira	-11.0768
▁melhorar	-11.077
ística	-11.077
pó	-11.077
gh	-11.077
linha	-11.0772
▁guerras	-11.0773
▁Europe	-11.0773
▁Golfo	-11.0774
aba	-11.0775
cr	-11.0776
He	-11.0777
cul	-11.078
▁aquático	-11.078
▁diversidade	-11.0781
▁Aliança	-11.0781
ă	-11.0784
▁her	-11.0784
▁administrada	-11.0785
▁atingindo	-11.0789
▁latina	-11.0789
▁fabricado	-11.0792
As	-11.0795
tando	-11.0797
SB	-11.0797
▁Book	-11.0799
▁escritas	-11.0799
ticamente	-11.0799
Cor	-11.0802
▁integral	-11.0804
▁Geo	-11.0805
ys	-11.0807
▁imp	-11.0808
▁escravos	-11.0811
▁criadas	-11.0813
▁chave	-11.0818
▁ce	-11.0819
▁representada	-11.0819
▁Caxias	-11.082
▁Clubes	-11.082
AN	-11.082
tradicionalmente	-11.0824
▁Bizantino	-11.0826
▁televisiva	-11.0826
▁fotógrafo	-11.0826
▁Folha	-11.0828
▁Pista	-11.0832
▁DNA	-11.0832
▁Manchester	-11.0835
▁essencialmente	-11.0836
CH	-11.0838
hara	-11.0838
rino	-11.0839
▁conjuntos	-11.0839
▁israelense	-11.084
▁refletor	-11.0841
▁cruzamento	-11.0841
▁Nicolau	-11.0843
▁extrema	-11.0846
▁Frei	-11.0848
▁utilizam	-11.085
uru	-11.085
▁Ian	-11.0852
▁experimental	-11.0855
iformes	-11.0855
▁Now	-11.0856
▁Islândia	-11.0857
Verbandsgemeinde	-11.0864
▁Tempo	-11.0867
▁Bas	-11.0868
nen	-11.0869
▁Moon	-11.0869
▁fotos	-11.0869
▁inventor	-11.0871
▁Girls	-11.0876
▁Bernard	-11.0876
▁uruguaio	-11.0879
clo	-11.0879
▁Nessa	-11.088
col	-11.088
▁incluiu	-11.0883
▁célula	-11.0883
▁Nascimento	-11.0886
anteriormente	-11.0887
▁designada	-11.09
▁organiza	-11.0901
ati	-11.0901
tle	-11.0904
▁Albums	-11.0905
▁Hard	-11.0906
tions	-11.0906
▁aliados	-11.0906
star	-11.0909
▁r	-11.0914
▁boca	-11.0918
ow	-11.0921
▁Supremo	-11.0924
▁ascendência	-11.0924
out	-11.0926
▁Broadway	-11.0929
▁Soccer	-11.0931
▁subtropical	-11.0932
▁linear	-11.0933
▁Mulher	-11.0934
mel	-11.0934
tividade	-11.0936
lea	-11.0939
▁Th	-11.0939
▁Jordan	-11.0939
▁Movie	-11.094
▁monarca	-11.094
▁identificar	-11.0942
▁vagas	-11.0942
▁Mai	-11.0944
▁fronteiras	-11.0945
▁Singapura	-11.0947
▁formalmente	-11.0947
▁cavalo	-11.0949
Mu	-11.095
▁Paralímpicos	-11.095
▁produzidas	-11.0952
▁raios	-11.0953
σ	-11.0954
sp	-11.0954
▁Harvard	-11.0954
ی	-11.0954
▁viu	-11.0964
▁narrativa	-11.0964
λ	-11.0964
▁reformas	-11.0965
▁Roll	-11.0969
▁Mello	-11.0971
ł	-11.0971
▁Last	-11.0974
ace	-11.0975
▁constitucional	-11.0977
▁Mosteiro	-11.0978
▁lutas	-11.0985
▁julgamento	-11.0986
▁moradores	-11.0986
▁mag	-11.0986
ingen	-11.099
mbi	-11.0991
inas	-11.0992
▁contribuição	-11.1001
▁físicas	-11.1002
▁transformação	-11.1002
▁Nor	-11.1004
▁capazes	-11.1005
▁Jeff	-11.1006
▁causar	-11.1006
▁Gene	-11.1012
▁Vladimir	-11.1015
▁Papua	-11.1016
▁Pol	-11.1016
hua	-11.1017
▁rochas	-11.102
з	-11.1021
▁Ty	-11.1024
▁algoritmo	-11.1025
▁restos	-11.1026
sca	-11.1028
▁detalhes	-11.1028
lay	-11.1029
▁vasta	-11.1033
▁costas	-11.1037
▁Romênia	-11.1038
▁baseia	-11.1044
▁Wisconsin	-11.1045
dro	-11.1046
campista	-11.1046
tores	-11.1047
▁tendência	-11.1049
right	-11.1052
▁mediante	-11.1055
▁atribuída	-11.1058
nor	-11.1062
▁estimativas	-11.1063
▁eclesiástica	-11.1069
rida	-11.1069
▁ob	-11.1069
▁Pouco	-11.107
▁tr	-11.107
▁protagonizada	-11.1071
▁Rai	-11.1073
▁Vivo	-11.1074
▁falha	-11.1074
▁populosa	-11.1077
▁tensão	-11.1077
vy	-11.1077
▁Ash	-11.1081
▁Dave	-11.1081
▁panchayat	-11.1084
én	-11.1086
Su	-11.1089
▁Tam	-11.109
▁Colônia	-11.1091
▁ocidentais	-11.1092
▁previsto	-11.1092
▁Public	-11.1093
▁recurso	-11.1093
ás	-11.1094
DS	-11.11
▁marinhas	-11.11
▁Jaime	-11.11
▁tratar	-11.1103
▁Ambos	-11.1103
▁célebre	-11.1103
▁colônia	-11.1103
▁music	-11.1103
▁colombiano	-11.1105
izados	-11.1108
ces	-11.1115
▁''	-11.1117
▁Banda	-11.1118
▁placas	-11.1119
▁afiliada	-11.1119
▁Pradesh	-11.1123
▁finlandês	-11.1123
▁Great	-11.1125
▁Over	-11.1127
▁processamento	-11.1128
An	-11.1129
▁municipais	-11.113
▁colocada	-11.1132
▁típico	-11.1136
▁Toledo	-11.1136
▁escolhida	-11.1138
▁aparecem	-11.1138
▁normas	-11.1139
▁necessária	-11.1142
▁That	-11.1143
▁Baden	-11.1144
▁Transilvânia	-11.1146
▁Maomé	-11.1146
▁Oliver	-11.1147
▁espírito	-11.1148
▁Carr	-11.115
bul	-11.115
▁permitem	-11.1153
▁Junto	-11.1153
▁segmento	-11.1154
fan	-11.1157
▁custos	-11.1157
▁Kal	-11.1158
▁declarado	-11.1159
▁governou	-11.1159
▁Acredita	-11.1161
conhecido	-11.1161
▁Petersburgo	-11.1164
▁Cruzeiro	-11.1167
▁inteiramente	-11.117
▁sementes	-11.1171
▁Wever	-11.1172
▁centímetros	-11.1173
▁Economia	-11.1177
▁destinada	-11.1178
▁usou	-11.1179
spe	-11.1179
EN	-11.1183
lio	-11.1185
▁aviação	-11.1185
▁amador	-11.1185
bili	-11.1188
▁ativos	-11.1194
▁ginasta	-11.1194
▁Alabama	-11.1198
ído	-11.1199
▁católicos	-11.1199
▁Líbia	-11.12
▁estatística	-11.1202
▁baixas	-11.1203
▁remonta	-11.1205
▁contar	-11.1205
▁visuais	-11.1208
▁infraestrutura	-11.1208
▁Temporada	-11.1208
▁executado	-11.121
▁ve	-11.1215
▁ligações	-11.1215
▁patriarca	-11.1216
▁Boys	-11.1216
Ru	-11.1217
zza	-11.1222
▁aranha	-11.1222
Ri	-11.1223
ller	-11.1223
▁cronologia	-11.1224
▁abriu	-11.1224
▁rival	-11.1224
sis	-11.1232
ético	-11.1234
▁creditado	-11.1235
▁uns	-11.1237
▁dimensão	-11.1239
▁fachada	-11.1239
▁evidências	-11.1242
▁identificado	-11.1244
▁implica	-11.1245
gni	-11.1245
rista	-11.1247
▁Poder	-11.1247
▁espectro	-11.1247
▁Palazzo	-11.1247
▁Comércio	-11.1248
▁Kunze	-11.1248
▁proximidades	-11.1248
▁avenida	-11.1253
▁Liberdade	-11.1255
▁Pin	-11.1258
ços	-11.126
▁Gonçalo	-11.1263
▁Bailly	-11.1263
▁Armadas	-11.1263
▁Online	-11.1263
▁daí	-11.1265
▁Sil	-11.1265
▁Plano	-11.1266
▁Statistische	-11.1271
▁estátua	-11.1272
▁Hamburgo	-11.1273
▁radio	-11.1277
▁dita	-11.1278
▁chi	-11.1279
▁Carlo	-11.128
rich	-11.128
Species	-11.1282
▁video	-11.1282
▁jornalismo	-11.1285
▁adquirida	-11.1286
▁armazenamento	-11.1286
▁tenta	-11.1287
▁adicionais	-11.1287
▁0,00000	-11.1289
▁Xi	-11.1291
campo	-11.1293
▁prima	-11.1296
lov	-11.1296
▁Hen	-11.1299
▁extended	-11.1302
▁instalado	-11.1302
▁dedicou	-11.1302
▁Lawrence	-11.1304
▁Kin	-11.1305
▁gu	-11.1306
FC	-11.1308
▁Tendo	-11.1308
▁Indústria	-11.131
▁Nevada	-11.131
▁Moura	-11.1312
▁Borges	-11.1312
▁Meio	-11.1314
▁fator	-11.1316
▁vermelhas	-11.1317
▁condenado	-11.1317
▁bilheteria	-11.1317
▁caracterizado	-11.1318
▁Basquetebol	-11.1318
▁Cross	-11.1318
▁bancos	-11.1322
▁explica	-11.1322
▁Kon	-11.1323
▁adaptada	-11.1323
▁gregos	-11.1324
▁Family	-11.1325
▁Bourgoin	-11.1325
iri	-11.1326
▁Feira	-11.1327
▁Cau	-11.1331
TE	-11.1333
ER	-11.1334
▁fundamentais	-11.1335
▁Republicano	-11.1335
▁HQ	-11.1337
▁olho	-11.1341
{	-11.1341
▁heavy	-11.1341
▁Marquês	-11.1341
▁coletivo	-11.1343
▁Sega	-11.1345
▁tor	-11.1345
▁ci	-11.1348
mit	-11.1348
▁Uni	-11.1348
▁gráficos	-11.1349
▁captura	-11.1353
▁derrotado	-11.1353
MG	-11.1356
▁subsp	-11.1356
▁rurais	-11.1357
▁Hel	-11.1358
▁emprego	-11.1359
iv	-11.1359
▁dinâmica	-11.136
gil	-11.1361
▁Atriz	-11.1362
▁obtendo	-11.1365
▁Disputa	-11.1365
▁ganha	-11.1366
▁Wei	-11.1367
mata	-11.1368
bur	-11.1368
▁...	-11.137
▁perder	-11.137
▁Porta	-11.1373
▁tecidos	-11.1375
jan	-11.1376
▁Berg	-11.1378
▁agrícola	-11.1381
▁Faleceu	-11.1381
▁radiação	-11.1381
▁reduzir	-11.1382
▁reprodução	-11.1382
▁marco	-11.1383
isto	-11.1383
▁registrada	-11.1385
▁vizinhos	-11.1388
▁Camarões	-11.1389
▁Orrell	-11.1389
▁raramente	-11.1391
▁desenvolvidos	-11.1393
▁lançadas	-11.1396
▁Hor	-11.1396
▁Magazine	-11.1397
▁Studio	-11.1397
▁Roskov	-11.1397
▁deusa	-11.1399
▁daquela	-11.1399
▁Gua	-11.1402
og	-11.1404
▁atração	-11.1404
▁Baillarge	-11.1404
▁legislação	-11.1404
idas	-11.1405
anti	-11.1407
região	-11.1409
▁Paglinawan	-11.1412
▁decisões	-11.1412
▁entrevista	-11.1413
▁Memória	-11.1418
▁aprovado	-11.1419
ology	-11.1423
▁sonda	-11.1423
ić	-11.1426
▁inflorescência	-11.1427
▁Anton	-11.1427
▁patente	-11.1429
▁oferta	-11.1431
▁lançaram	-11.1435
▁históricas	-11.1436
▁revezamento	-11.1436
▁Culham	-11.1437
▁Freitas	-11.1437
▁Kid	-11.1438
▁acusado	-11.1441
▁rico	-11.1441
win	-11.1445
▁científicos	-11.1445
▁Abuca	-11.1449
riz	-11.145
rita	-11.1451
▁Didžiulis	-11.1452
▁gerou	-11.1454
▁Teoria	-11.1454
ili	-11.1456
hon	-11.1456
▁projecto	-11.146
▁artilheiro	-11.146
▁assassinado	-11.1464
lingua	-11.1465
▁Guy	-11.1465
▁Dona	-11.1467
stone	-11.147
borg	-11.1471
cou	-11.1471
▁Reno	-11.1474
Ver	-11.1478
▁los	-11.1481
▁brancas	-11.1483
▁DE	-11.1485
lit	-11.1485
▁Água	-11.1488
terra	-11.1491
ip	-11.1494
▁moléculas	-11.1494
▁ritmo	-11.1494
EC	-11.1495
▁Álvaro	-11.15
▁Heroísmo	-11.15
rup	-11.1501
▁zero	-11.1501
▁derrotar	-11.1504
▁Ó	-11.1505
▁Morte	-11.1511
▁debate	-11.1512
anga	-11.1514
ped	-11.1515
▁conclusão	-11.1516
less	-11.1516
▁Plan	-11.1521
▁della	-11.1523
lec	-11.1525
pio	-11.1525
▁cura	-11.1527
red	-11.1529
▁Mis	-11.1532
▁Lobo	-11.1536
▁cri	-11.1536
ração	-11.1539
▁Wars	-11.154
▁Charlie	-11.154
ē	-11.154
▁cérebro	-11.154
▁vulcânica	-11.154
▁Valle	-11.1542
▁cliente	-11.1543
▁LP	-11.1544
Geral	-11.1547
▁00°00'00"	-11.1548
DC	-11.1548
ova	-11.1552
▁elegeu	-11.1557
▁Lang	-11.1559
▁herdeiro	-11.1559
▁dificuldades	-11.1564
▁equação	-11.1565
▁envolvido	-11.1567
uí	-11.1568
▁Soul	-11.1569
▁povoação	-11.1569
py	-11.157
ij	-11.1571
▁assistência	-11.1573
▁vegetal	-11.1573
▁filmagens	-11.1573
mbu	-11.1575
▁estágio	-11.1576
▁Not	-11.1578
▁embarcação	-11.1581
▁perdendo	-11.1584
▁Pires	-11.1585
mil	-11.1586
ugh	-11.1587
all	-11.1588
▁nono	-11.1588
▁consorte	-11.1589
▁depressão	-11.159
▁quente	-11.1591
cular	-11.1592
▁Timor	-11.1595
▁conter	-11.1596
ο	-11.1596
▁Matthew	-11.1597
▁braço	-11.1601
forma	-11.1603
▁Actualmente	-11.1605
▁Azerbaijão	-11.1605
▁vantagem	-11.1605
▁Andrea	-11.1611
▁Bag	-11.1612
lf	-11.1612
▁Wii	-11.1613
▁festivais	-11.1613
▁contraste	-11.1614
▁discografia	-11.1615
mber	-11.1615
▁afluente	-11.1617
sburg	-11.1618
▁Morgan	-11.1618
▁country	-11.1619
asteróide	-11.1619
▁Gla	-11.162
▁Part	-11.1621
eli	-11.1623
tens	-11.1623
ardo	-11.1625
▁foz	-11.1626
▁descobriu	-11.1629
▁Giro	-11.1631
AB	-11.1633
head	-11.1634
▁Portal	-11.1634
▁paredes	-11.1635
▁SA	-11.1636
gol	-11.1637
▁complexidade	-11.1637
lock	-11.1638
▁Dezemb	-11.1638
▁Domingo	-11.1641
▁discurso	-11.1642
▁Maryland	-11.1644
▁Alentejo	-11.1646
▁aprovação	-11.1646
▁narra	-11.1648
RI	-11.165
ume	-11.165
tário	-11.1654
ш	-11.1657
▁simplificado	-11.1659
▁Of	-11.1663
▁adotada	-11.1666
▁terrestres	-11.1671
uga	-11.1675
yama	-11.1676
▁Tinha	-11.1678
د	-11.168
▁Bat	-11.168
▁Floresta	-11.1681
▁aluno	-11.1684
encia	-11.1684
▁Wild	-11.1686
▁für	-11.1687
▁Cerca	-11.1687
▁necessidades	-11.1688
III	-11.1688
▁tentar	-11.1688
sos	-11.1692
▁Swift	-11.1694
の	-11.1695
▁borboleta	-11.1696
▁Turim	-11.1699
▁cálculo	-11.1699
▁mantido	-11.17
▁Sto	-11.1701
▁Sou	-11.1702
▁loja	-11.1702
▁religiões	-11.1703
▁ventos	-11.1704
quia	-11.1706
▁Stan	-11.1709
▁personalidades	-11.1709
▁NFL	-11.1711
▁Anteriormente	-11.1711
IT	-11.1713
▁desenhista	-11.1719
▁Interior	-11.172
▁divididos	-11.172
▁Old	-11.172
▁negros	-11.1721
lot	-11.1721
▁móveis	-11.1722
mão	-11.1727
▁Cemitério	-11.1727
▁Cab	-11.1732
▁Cas	-11.1732
▁delegação	-11.1735
cc	-11.1736
pho	-11.1736
▁fra	-11.1737
▁Blood	-11.1741
▁resulta	-11.1742
▁Software	-11.1744
▁Território	-11.1744
▁hotel	-11.1744
atus	-11.1745
▁roedor	-11.1746
▁elétrico	-11.1747
▁Morro	-11.1751
▁cem	-11.1751
▁Jonathan	-11.1752
▁ganharam	-11.1752
▁habilidades	-11.1752
▁reeleito	-11.1752
μ	-11.1756
wer	-11.1756
▁exerce	-11.1759
▁Vegas	-11.176
▁Virgem	-11.1761
▁secreta	-11.1766
▁Cristina	-11.1769
▁paisagem	-11.1769
stor	-11.1769
▁alimentação	-11.177
PP	-11.1774
▁Ama	-11.1776
▁consciência	-11.1777
▁roupas	-11.1783
▁Mans	-11.1798
▁famosas	-11.1799
▁típica	-11.1803
▁Clo	-11.1807
▁interpreta	-11.1811
sey	-11.1814
▁soviética	-11.1814
▁começando	-11.1814
▁botânica	-11.1817
▁deuses	-11.1819
▁Você	-11.1822
▁surgimento	-11.1826
▁específicos	-11.183
rias	-11.1836
ington	-11.1837
wn	-11.1837
ι	-11.1838
γ	-11.1838
▁técnicos	-11.1839
▁continuar	-11.1841
ance	-11.1846
▁Death	-11.1848
▁muçulmanos	-11.1849
▁Adams	-11.1849
▁síndrome	-11.1851
Cidade	-11.1851
▁Musical	-11.1854
▁armadas	-11.1856
▁cap	-11.1857
yu	-11.186
▁turistas	-11.186
▁Johnny	-11.186
ore	-11.1863
▁organizar	-11.1864
gun	-11.1866
lada	-11.1868
▁Benfica	-11.1868
▁variam	-11.187
▁controlar	-11.1876
▁Beat	-11.188
▁sp	-11.1885
nk	-11.1887
▁Cro	-11.1888
▁grave	-11.1888
PC	-11.1892
▁Ibérica	-11.1893
▁perseguição	-11.1894
▁Mara	-11.1895
▁aéreas	-11.1896
▁vo	-11.1897
▁momentos	-11.1898
▁elétrons	-11.1901
▁espanhóis	-11.1901
▁mestrado	-11.1901
▁habilidade	-11.1901
▁Ensino	-11.1901
▁teologia	-11.1902
▁gigante	-11.1903
▁Ludwig	-11.1905
estadunidense	-11.1909
Statistische	-11.1909
▁escritório	-11.1909
▁Pia	-11.1913
▁Martinho	-11.1913
▁médicos	-11.1914
posta	-11.1915
▁construções	-11.1918
▁rugby	-11.1918
▁distintos	-11.1918
▁cães	-11.1919
ович	-11.192
rac	-11.1921
▁caixa	-11.1924
nza	-11.1925
|	-11.1926
▁distinção	-11.1926
▁streaming	-11.1926
▁Hitler	-11.1926
▁roda	-11.1927
nato	-11.1927
nger	-11.1928
▁uniforme	-11.193
▁equipamento	-11.193
dino	-11.1931
▁Russell	-11.1931
▁croata	-11.1935
0-	-11.1938
▁Parte	-11.1938
▁Kara	-11.1939
▁Guadalajara	-11.194
▁verdadeira	-11.194
▁Kentucky	-11.1941
inhos	-11.1947
▁Hart	-11.1947
rosa	-11.1951
▁pouca	-11.1952
▁Princesa	-11.1953
▁OS	-11.1955
▁sucedida	-11.1956
▁ordenado	-11.1957
▁eleitores	-11.1958
pina	-11.1959
▁cooperação	-11.196
▁Rod	-11.1962
▁Justin	-11.1964
gle	-11.1964
▁IP	-11.1965
aca	-11.1966
▁haver	-11.1966
▁confronto	-11.1968
cz	-11.1969
▁nativos	-11.1971
▁atualidade	-11.1972
▁conexão	-11.1976
▁autonomia	-11.1977
▁acadêmico	-11.1977
▁extremidade	-11.1977
▁batalhas	-11.1981
▁Luc	-11.1985
▁Sound	-11.1986
▁Pal	-11.1987
oto	-11.1987
row	-11.1987
zz	-11.1987
pto	-11.1987
▁Vaticano	-11.1988
▁mata	-11.1993
▁Dinastia	-11.1993
▁faculdade	-11.1994
▁Mol	-11.1999
▁Gana	-11.2001
▁planejamento	-11.2002
▁convidados	-11.2005
▁Haiti	-11.2007
▁comunista	-11.2008
▁Joan	-11.2008
▁First	-11.2008
▁mental	-11.201
▁cordas	-11.2012
Jo	-11.2014
segundo	-11.2019
-00)	-11.202
cionado	-11.2021
▁conseguiram	-11.2023
▁Goiânia	-11.2023
cca	-11.2023
▁Centre	-11.2025
cum	-11.2025
PS	-11.2026
▁trajetória	-11.2027
vul	-11.2027
cino	-11.2028
aro	-11.2029
▁Aqui	-11.203
ла	-11.2033
▁confirmado	-11.2034
▁Us	-11.2035
▁Hóquei	-11.2035
▁existiu	-11.2035
▁quântica	-11.2035
▁Navarra	-11.2035
▁extensa	-11.2037
-000,	-11.2037
▁Albuquerque	-11.2038
▁Douro	-11.204
Ex	-11.2042
▁Prússia	-11.2052
▁aparições	-11.2052
▁ideologia	-11.2052
tero	-11.2054
▁poderiam	-11.2054
ucci	-11.206
▁chileno	-11.2061
IM	-11.2061
▁pl	-11.2062
▁Pala	-11.2062
▁Br	-11.2065
▁Existe	-11.2065
▁cão	-11.2066
▁Sarah	-11.2068
iya	-11.2068
▁mesmas	-11.2068
▁intuito	-11.2069
▁vontade	-11.2069
▁relata	-11.2072
▁Chefe	-11.2073
▁realmente	-11.2075
▁Ernesto	-11.2076
▁ocupada	-11.2079
▁Filmes	-11.2079
menta	-11.208
are	-11.2083
▁aclamado	-11.2085
▁Ortodoxa	-11.2086
▁States	-11.2086
▁Carmo	-11.2087
▁pódio	-11.2087
▁pertencia	-11.2091
entes	-11.2091
etto	-11.2093
▁Bang	-11.2094
▁sábado	-11.2097
▁"00	-11.2099
▁This	-11.2099
bon	-11.2099
lt	-11.2102
DE	-11.2104
▁investimento	-11.2106
mat	-11.2106
fundador	-11.2111
▁contínua	-11.2112
▁anglo	-11.2112
▁ni	-11.2113
▁açúcar	-11.2115
cl	-11.2116
▁relevo	-11.2118
stitu	-11.2119
▁Convenção	-11.212
tados	-11.2126
uz	-11.2128
*	-11.2129
able	-11.2134
▁stat	-11.2134
vista	-11.2134
▁cirurgia	-11.2135
bó	-11.2141
▁muda	-11.2142
sub	-11.2142
jin	-11.2144
▁blocos	-11.2147
▁Renato	-11.2148
▁Ker	-11.2149
▁virtude	-11.2149
ló	-11.2154
▁Complexo	-11.2154
▁democracia	-11.2155
▁san	-11.2156
▁jardim	-11.2157
lly	-11.216
▁pertencem	-11.2162
▁adolescente	-11.2162
endo	-11.2168
glia	-11.217
▁setores	-11.2173
▁blues	-11.2173
▁importa	-11.2173
kai	-11.2174
▁substituiu	-11.2176
▁dance	-11.2177
vent	-11.2179
mbe	-11.2179
▁(0000,	-11.218
▁cultivo	-11.2181
oro	-11.2182
▁Bridge	-11.2182
grafia	-11.2184
meno	-11.2184
▁contemporâneo	-11.2184
▁Lincoln	-11.2185
▁costuma	-11.2185
prt	-11.2187
▁metro	-11.2193
▁coisa	-11.2194
▁naturalizado	-11.2201
▁governante	-11.2202
▁descreveu	-11.2206
▁orgânica	-11.2206
▁Got	-11.2208
▁Sofia	-11.2209
▁cu	-11.221
▁Alemã	-11.2212
▁Mars	-11.2212
▁Airlines	-11.2215
cco	-11.2217
▁manhã	-11.2222
▁escritórios	-11.2223
iliopsida	-11.2224
back	-11.2224
▁servidor	-11.2224
▁preparação	-11.2225
▁Fan	-11.2226
▁Nápoles	-11.2226
▁Vera	-11.2226
▁regente	-11.2228
▁Convento	-11.2232
aw	-11.2233
▁mencionado	-11.2234
▁placa	-11.2235
▁Fonte	-11.2236
▁mostrar	-11.2237
▁tráfego	-11.224
▁Constitucional	-11.224
lig	-11.2244
▁Ferrari	-11.2244
▁Ran	-11.2246
▁gerar	-11.2246
▁nomeação	-11.2246
RO	-11.2252
uc	-11.2253
▁Enciclopédia	-11.2254
udi	-11.2256
▁concerto	-11.2257
▁vinho	-11.2257
▁Asphodelaceae	-11.2258
▁romeno	-11.2258
▁RPG	-11.2259
▁group	-11.2259
▁fechado	-11.2263
▁bactérias	-11.2263
▁aventuras	-11.2266
▁Algarve	-11.2267
ístico	-11.2269
▁Silveira	-11.2275
▁cantão	-11.2276
▁campus	-11.2285
▁Boca	-11.229
mmer	-11.2291
▁Beatles	-11.2292
▁Paróquia	-11.2292
▁conselheiro	-11.2292
Área	-11.2295
riano	-11.2295
▁Billy	-11.2297
▁Let	-11.23
day	-11.2301
▁Leite	-11.2301
▁iTunes	-11.2301
ib	-11.2306
CC	-11.2307
▁Mancha	-11.231
▁configuração	-11.2311
▁And	-11.2312
▁Total	-11.2312
▁morreram	-11.2314
å	-11.2316
▁coletiva	-11.2317
▁Foundation	-11.2318
▁vidro	-11.2319
▁dezenas	-11.2319
▁Philip	-11.2319
▁contribuiu	-11.2322
▁Ham	-11.2323
▁Trabalhadores	-11.2327
▁implementação	-11.2328
▁Cook	-11.2328
▁proto	-11.2328
▁Bol	-11.233
▁segura	-11.2331
▁Pla	-11.2331
▁barra	-11.2332
▁irlandesa	-11.2333
nês	-11.2334
▁continuidade	-11.2336
▁Pablo	-11.2336
▁Houston	-11.2338
▁localizados	-11.2338
▁Qua	-11.2339
ming	-11.234
▁embaixador	-11.234
▁humanas	-11.2342
CD	-11.2343
zia	-11.2344
▁Stewart	-11.2344
▁Índico	-11.2344
▁Tha	-11.2348
▁divide	-11.2351
▁sólido	-11.2352
▁combina	-11.2352
▁Bir	-11.2358
ães	-11.2359
▁ben	-11.236
▁frutos	-11.2361
▁pretende	-11.2361
▁Valley	-11.2362
▁exclusivo	-11.2362
ston	-11.2362
nov	-11.2363
▁inclusão	-11.2363
itz	-11.2365
▁ibn	-11.2368
▁Maurício	-11.2371
▁Mou	-11.2373
▁publica	-11.2375
ough	-11.2376
▁desconhecido	-11.2378
▁árabes	-11.2379
▁sucedeu	-11.2382
tern	-11.2383
▁econômicas	-11.2383
▁causando	-11.2384
ejo	-11.2384
▁Gun	-11.2384
▁vivos	-11.2386
▁estrelou	-11.2386
ness	-11.2387
▁Amazônia	-11.2388
▁Montenegro	-11.2389
▁inscrição	-11.239
▁Casou	-11.2392
illo	-11.2393
tec	-11.2394
num	-11.2396
▁italianos	-11.2396
▁Poly	-11.2401
▁ocupar	-11.2402
▁negócio	-11.2404
▁gráfica	-11.2405
ug	-11.2405
Fo	-11.2405
▁feminista	-11.2406
▁trilogia	-11.2407
▁Italiana	-11.2411
sma	-11.2412
▁liberal	-11.2413
▁imobiliário	-11.2415
▁Comp	-11.2415
▁Nord	-11.2417
ism	-11.2419
▁Ang	-11.2422
▁manifestações	-11.2424
▁Gan	-11.2427
rato	-11.2428
▁síntese	-11.2429
▁Perry	-11.243
▁Bárbara	-11.2432
▁Conhecido	-11.2432
▁Napoleão	-11.2432
▁Otomano	-11.2432
icamente	-11.2434
▁Colo	-11.2437
agens	-11.244
▁transferido	-11.244
▁Júpiter	-11.2441
▁colégio	-11.2441
▁geológica	-11.2441
▁recuperação	-11.2442
▁Rou	-11.2444
▁significativo	-11.2444
garra	-11.2445
eda	-11.2445
▁Bond	-11.2445
▁0000/00	-11.2446
rna	-11.2447
▁vela	-11.2451
▁GO	-11.2453
▁Seul	-11.2454
▁catedral	-11.2454
EM	-11.2455
▁Stock	-11.2456
Los	-11.2457
▁junta	-11.2457
▁basicamente	-11.2459
▁companhias	-11.2464
aki	-11.2467
▁probabilidade	-11.2467
▁cinturão	-11.2467
▁esquema	-11.2467
▁Women	-11.2468
▁fortaleza	-11.2472
sil	-11.2473
▁nele	-11.2473
▁sair	-11.2476
▁Lind	-11.2476
▁ciclones	-11.2481
▁Manhattan	-11.2482
▁psico	-11.2483
])	-11.2483
▁molusco	-11.2485
SO	-11.2485
▁dialeto	-11.2491
▁DS	-11.2492
já	-11.2493
▁marismas	-11.2494
bos	-11.2495
dente	-11.2496
▁iniciar	-11.2498
▁Inglês	-11.25
▁ri	-11.2501
▁Química	-11.2503
▁Jimmy	-11.2503
gão	-11.2504
▁salário	-11.2505
ы	-11.2508
▁êxito	-11.2512
-0,	-11.2512
Cha	-11.2514
▁membrana	-11.2514
LA	-11.2516
▁Manoel	-11.2518
▁Densidade	-11.252
▁portal	-11.2526
▁Alba	-11.2527
▁sociedades	-11.2527
▁moedas	-11.2528
II	-11.2528
▁reuniu	-11.2529
▁numerosos	-11.2529
▁dificuldade	-11.253
▁Moraes	-11.2535
▁bal	-11.2535
▁voltar	-11.2536
▁circular	-11.2537
▁Kat	-11.2537
▁financeiros	-11.2538
▁concluído	-11.2538
▁dorsal	-11.2539
▁Rey	-11.2539
▁estudante	-11.254
▁inimigos	-11.2544
▁lutou	-11.2549
sel	-11.2553
▁Comando	-11.2555
▁reorganização	-11.2557
▁Granada	-11.2558
RE	-11.2559
▁anel	-11.2559
▁abreviado	-11.2559
chin	-11.256
▁registrado	-11.2562
fin	-11.2563
mic	-11.2565
▁remake	-11.2565
int	-11.2567
enburg	-11.2569
▁tro	-11.2569
▁quebra	-11.2571
▁Deutsche	-11.2573
▁equações	-11.2574
▁Et	-11.2577
▁apoiado	-11.258
▁Disco	-11.2584
▁concentra	-11.2586
▁Pet	-11.2587
▁nona	-11.2588
▁suicídio	-11.2592
Bissau	-11.2592
▁ganhos	-11.2594
▁Batman	-11.2594
vila	-11.2596
inae	-11.2598
GA	-11.2599
▁espaciais	-11.2601
▁Lord	-11.2602
▁Campeão	-11.2604
sko	-11.2605
▁baseadas	-11.2605
hel	-11.2606
▁Margarida	-11.261
▁hidrogênio	-11.261
etta	-11.2613
▁levado	-11.2615
Per	-11.2617
▁servido	-11.2617
▁Vasconcelos	-11.2619
▁Marcel	-11.2622
▁funcional	-11.2625
LE	-11.2626
▁lava	-11.2627
▁Animation	-11.2628
▁desejo	-11.2629
▁gramínea	-11.263
▁Norman	-11.263
▁defendeu	-11.263
▁corredor	-11.2634
▁toca	-11.2636
▁integrou	-11.2637
tera	-11.2638
▁Sand	-11.2639
graduação	-11.2641
▁Niterói	-11.2643
▁Square	-11.2646
aya	-11.2646
▁fungo	-11.2649
▁válidos	-11.2649
▁Vários	-11.265
▁Motor	-11.265
▁Human	-11.2652
▁Mulheres	-11.2653
▁navegação	-11.2653
▁historicamente	-11.2655
▁Basílica	-11.2655
▁únicos	-11.2655
gur	-11.2656
▁detém	-11.2657
▁colocar	-11.2658
▁Minor	-11.2662
▁Angel	-11.267
▁Carey	-11.2678
tões	-11.268
▁Jar	-11.268
▁ficam	-11.2681
▁sons	-11.2688
▁Criado	-11.2689
▁automóvel	-11.2691
▁impressão	-11.2691
▁operacionais	-11.2691
▁nasce	-11.2691
▁home	-11.2691
▁cerco	-11.2694
af	-11.2694
▁Eli	-11.2696
▁começar	-11.2696
ス	-11.27
gada	-11.2701
▁parede	-11.2703
▁Rat	-11.2704
▁gravar	-11.2705
▁eficiente	-11.2706
rock	-11.2708
tsch	-11.2708
▁retornar	-11.2709
▁Obteve	-11.2709
▁tripulação	-11.2709
▁compacto	-11.2709
▁precisão	-11.2709
▁pedras	-11.2709
▁prato	-11.271
▁resolver	-11.2712
▁caracteres	-11.2712
▁intensa	-11.2714
▁Eslováquia	-11.2718
▁vê	-11.2719
▁Chipre	-11.2721
▁brilhante	-11.2722
▁romancista	-11.2727
▁uni	-11.2727
▁trio	-11.2727
cel	-11.2727
▁incluía	-11.2728
rate	-11.2729
▁auge	-11.273
▁Massa	-11.2732
▁Cla	-11.2733
lou	-11.2734
▁Orlando	-11.2736
▁preciso	-11.2736
▁Austin	-11.2736
▁Bandeirantes	-11.2737
ès	-11.2737
▁Normalmente	-11.2738
gente	-11.2738
▁$	-11.2741
▁relançado	-11.2746
▁monumentos	-11.2747
sina	-11.2749
▁Come	-11.2749
sz	-11.2749
▁Oregon	-11.275
▁departamentos	-11.2751
▁estatal	-11.2752
▁deixa	-11.2753
▁Malta	-11.2754
aco	-11.2754
▁opinião	-11.2754
▁esp	-11.2756
▁→	-11.2756
▁Matemáticos	-11.2763
▁Bairro	-11.2763
▁PR	-11.2764
slav	-11.2764
▁jo	-11.2766
MP	-11.2766
ь	-11.2766
▁básico	-11.2767
▁Tomás	-11.2768
ð	-11.277
▁secundárias	-11.2771
▁Abreu	-11.2773
▁comparado	-11.2774
▁Cannes	-11.2775
rov	-11.2777
▁Just	-11.278
▁circunscrição	-11.2781
▁brasão	-11.2782
tã	-11.2782
▁Bela	-11.2784
?"	-11.2787
▁August	-11.2787
▁sobrenome	-11.279
Star	-11.279
▁Saudita	-11.2791
▁vertical	-11.2791
▁protestos	-11.2791
▁prevista	-11.2792
▁manuscrito	-11.2795
▁ovos	-11.2797
põe	-11.2797
▁CO	-11.2799
ME	-11.28
▁periódico	-11.2804
▁Cala	-11.2804
▁Av	-11.2805
▁tradutor	-11.2806
▁Utah	-11.2809
▁tivesse	-11.281
ao	-11.2811
▁RS	-11.2815
▁Continental	-11.2818
dou	-11.2818
▁positiva	-11.282
▁antecessor	-11.2822
▁actividade	-11.2822
▁Caso	-11.2822
▁átomos	-11.2823
▁va	-11.2826
▁Cabral	-11.2826
ega	-11.2827
▁camadas	-11.2827
▁sites	-11.2833
▁andares	-11.2834
▁Flávio	-11.2836
▁industriais	-11.2837
▁géneros	-11.2838
▁pertencentes	-11.2839
▁Lá	-11.284
▁Data	-11.2841
▁travada	-11.2844
▁naquela	-11.2846
▁prote	-11.2846
▁telescópios	-11.2848
▁análises	-11.2852
▁Evans	-11.2856
▁físicos	-11.286
▁Largo	-11.286
▁aulas	-11.2864
▁contida	-11.2864
▁Bass	-11.2867
▁Cinco	-11.2868
▁frio	-11.2868
▁incêndio	-11.2869
▁visando	-11.2872
▁Iron	-11.2872
▁0.00	-11.2873
▁Botafogo	-11.2873
▁Quebec	-11.2873
sy	-11.2878
▁Pl	-11.2879
▁tentativas	-11.2879
▁publicidade	-11.2882
▁matagal	-11.2882
▁Américas	-11.2883
η	-11.2883
hor	-11.2886
▁nativo	-11.2886
▁empregado	-11.2891
▁terça	-11.2892
ulo	-11.2895
▁ilustrador	-11.2895
▁propaganda	-11.2895
TO	-11.2896
▁Multi	-11.29
▁By	-11.29
▁considerável	-11.29
▁Jerry	-11.2901
▁aço	-11.2901
▁Republic	-11.2907
ów	-11.2908
▁avanço	-11.2908
▁regularmente	-11.2909
▁Andaluzia	-11.291
ו	-11.2919
vir	-11.2919
▁inauguração	-11.292
aire	-11.2921
tru	-11.2922
RC	-11.2923
▁Chaves	-11.2924
zan	-11.2924
▁primária	-11.2925
▁intervalo	-11.2925
▁turístico	-11.2926
▁auxílio	-11.2928
▁Marshall	-11.2928
▁Lin	-11.293
▁canta	-11.2931
▁Praga	-11.2933
gie	-11.2935
▁alcançado	-11.2935
▁datas	-11.2936
▁Kennedy	-11.2937
oca	-11.2938
▁torcedores	-11.2938
▁Tin	-11.2941
▁Soyuz	-11.2942
nna	-11.2942
▁pol	-11.2946
gne	-11.2946
PO	-11.2948
▁medicamentos	-11.2949
▁Ol	-11.2949
:00.0000/	-11.2949
ólogo	-11.2949
▁Thi	-11.2951
over	-11.2952
▁variantes	-11.2953
▁químicos	-11.2953
▁Georg	-11.2953
ule	-11.2954
▁expectativa	-11.2954
▁alterado	-11.2955
▁catálogo	-11.2956
▁cordilheira	-11.2956
▁linguagens	-11.2956
▁derivada	-11.2956
▁Diogo	-11.2957
▁mercados	-11.2958
sing	-11.296
▁Harris	-11.2962
sie	-11.2962
ânica	-11.2963
Que	-11.2964
▁Dicionário	-11.2966
▁cozinha	-11.2966
▁passam	-11.2966
▁reduzida	-11.2967
▁protocolo	-11.2973
イ	-11.2974
▁Jérsei	-11.2974
▁Jersey	-11.2975
zel	-11.2976
▁pior	-11.298
▁Ronald	-11.298
▁Thor	-11.2981
mora	-11.2981
▁restaurantes	-11.2983
ónico	-11.2985
ácio	-11.2985
▁regulares	-11.2989
moto	-11.2989
κ	-11.2989
▁Zâmbia	-11.2993
▁agraciado	-11.2993
▁compreensão	-11.2993
▁corrupção	-11.2993
▁intenso	-11.2993
▁Cartoon	-11.2993
▁Graham	-11.2994
▁Reich	-11.2997
▁Hand	-11.2998
▁instituto	-11.3001
leto	-11.3002
cat	-11.3003
▁emissoras	-11.3003
▁Ltd	-11.3009
▁fundos	-11.3012
▁Palestina	-11.3012
▁itens	-11.3013
▁praias	-11.3013
▁piso	-11.3017
▁Antioquia	-11.3021
nea	-11.3022
▁Marina	-11.3023
▁Bai	-11.3023
ativa	-11.3025
▁Baby	-11.3027
▁PIB	-11.3027
▁pacientes	-11.303
▁aquela	-11.3031
tana	-11.3033
)}	-11.3036
▁Newton	-11.3036
▁Monumento	-11.3038
▁parlamentar	-11.3039
onia	-11.3039
mark	-11.304
▁Presidência	-11.304
ɪ	-11.304
▁Fur	-11.304
▁MMA	-11.3045
ль	-11.3045
▁Ernst	-11.3049
▁iso	-11.3049
rri	-11.3053
▁Deputados	-11.3054
▁inéditas	-11.3054
▁men	-11.3058
▁instrumental	-11.3058
▁Escrita	-11.3058
▁Iugoslávia	-11.3061
▁variedades	-11.3066
▁lançamentos	-11.3067
brasileiro	-11.3067
tologia	-11.3067
▁Óscar	-11.3068
Ni	-11.3074
idades	-11.3078
▁Alasca	-11.3078
▁CE	-11.3079
ên	-11.308
▁‘	-11.3081
ches	-11.3083
▁AM	-11.3084
dim	-11.3085
▁cinquenta	-11.3087
▁aquisição	-11.3087
▁notoriedade	-11.3087
▁tronco	-11.3087
▁Mes	-11.3088
▁cana	-11.3088
lag	-11.3089
▁SC	-11.309
hall	-11.3091
ipe	-11.3092
▁adição	-11.3094
▁relatos	-11.3094
▁diário	-11.3095
rinha	-11.3096
gá	-11.3096
▁Nickelodeon	-11.3096
▁desemprego	-11.3096
▁holandesa	-11.3096
▁Euphorbiaceae	-11.3096
▁dirigir	-11.3096
arte	-11.3096
▁Battle	-11.3097
▁HBO	-11.3097
▁envolvidos	-11.3102
▁jurídica	-11.3105
tido	-11.3112
>	-11.3114
owski	-11.3114
▁hipótese	-11.3115
inga	-11.3118
▁Dog	-11.312
▁Évora	-11.3121
lógica	-11.3121
▁mineral	-11.3123
niano	-11.3123
vor	-11.3125
math	-11.3128
rar	-11.3129
▁Dur	-11.3132
▁surge	-11.3133
▁distante	-11.3135
▁Ky	-11.3137
▁ocorrida	-11.3139
distrito	-11.3141
▁Cooper	-11.3142
Alpes	-11.3143
▁marketing	-11.3143
tí	-11.3145
▁Direitos	-11.3146
▁saga	-11.3147
CI	-11.3147
}}}	-11.3149
sten	-11.315
▁voltada	-11.3151
▁pioneiros	-11.3152
▁Televisa	-11.3153
▁teórico	-11.3153
tella	-11.3155
▁director	-11.3156
▁cavalos	-11.3161
cess	-11.3162
▁ferroviário	-11.3162
▁apoiar	-11.3162
▁Atende	-11.3164
▁Wright	-11.3165
pet	-11.3169
cci	-11.3169
▁Neu	-11.317
ibi	-11.3171
▁Rondônia	-11.3171
▁promovida	-11.3171
▁Paranaense	-11.3171
▁aparelho	-11.3172
▁específicas	-11.3174
través	-11.3175
▁Canada	-11.3176
▁duo	-11.3177
▁confrontos	-11.318
▁vigésima	-11.3181
Rei	-11.3181
▁recepção	-11.3182
quina	-11.3185
CB	-11.3185
▁Milton	-11.3185
war	-11.3185
▁dão	-11.3187
▁Observatório	-11.319
iel	-11.3192
▁Take	-11.3196
izadas	-11.3199
▁Model	-11.32
▁Industry	-11.32
▁coro	-11.32
▁consecutivas	-11.32
chy	-11.3201
▁Delta	-11.3202
▁totalizando	-11.3203
nense	-11.3208
▁aparecer	-11.3209
▁trânsito	-11.3209
▁sócio	-11.3215
▁Havaí	-11.3219
▁emissão	-11.3219
cola	-11.3222
▁Tsu	-11.3222
dir	-11.3222
▁Race	-11.3223
▁progressivo	-11.3228
▁gerenciamento	-11.3229
▁Festa	-11.3229
▁inc	-11.323
BR	-11.3231
nn	-11.3231
▁nobreza	-11.3233
▁tornado	-11.3233
esa	-11.3237
fel	-11.3238
▁Imprensa	-11.3238
▁nela	-11.3242
ving	-11.3242
▁colônias	-11.3243
▁sexuais	-11.3244
tula	-11.3244
ans	-11.3244
▁Africano	-11.3244
▁Álbum	-11.3245
▁Under	-11.3245
▁rosa	-11.3248
▁ambientais	-11.3248
▁declaração	-11.3249
▁escudo	-11.3257
ento	-11.3258
▁confundido	-11.3261
▁foca	-11.3262
este	-11.3264
ave	-11.3266
▁festas	-11.3266
▁ênfase	-11.3267
▁declínio	-11.3267
▁profundo	-11.3267
▁seguidores	-11.3271
▁Salão	-11.3273
missão	-11.3274
▁Sab	-11.3274
▁Palm	-11.3275
▁arredores	-11.3277
▁What	-11.3277
▁Roland	-11.3279
▁naturalista	-11.3279
▁governamental	-11.328
mur	-11.3282
lismo	-11.3283
▁medir	-11.3283
▁esca	-11.3284
▁nossa	-11.3285
▁emérito	-11.3288
▁Ble	-11.3288
▁Esteve	-11.3289
▁Amar	-11.3291
▁00′′	-11.3291
ка	-11.3293
▁controla	-11.3294
▁Período	-11.3295
▁modernas	-11.3297
▁Two	-11.3298
▁Fall	-11.3299
▁indiana	-11.3299
▁q	-11.33
▁Quinto	-11.3304
▁explorador	-11.3304
▁Baixo	-11.3305
▁Corinthians	-11.3305
▁mensagens	-11.3305
▁Televisão	-11.3305
tem	-11.3307
▁Mat	-11.331
riga	-11.3312
▁proeminentes	-11.3314
▁Ag	-11.3315
▁gravadas	-11.3317
▁Office	-11.3317
▁numerosas	-11.332
▁Yoshi	-11.3321
▁rocha	-11.3321
▁assassino	-11.3324
▁geoestacionário	-11.3324
▁profissão	-11.3324
▁acompanha	-11.3328
pta	-11.3332
▁femininas	-11.3332
▁Sri	-11.3334
▁Prince	-11.3334
▁Discovery	-11.3334
▁Albânia	-11.3334
▁ONU	-11.3335
▁cruz	-11.3337
▁Membro	-11.3339
AS	-11.3339
▁Sen	-11.3341
▁Montana	-11.3342
▁artilharia	-11.3343
▁concebido	-11.3344
cultura	-11.3345
ânico	-11.3346
▁intermitentes	-11.3346
α	-11.3346
For	-11.3346
ote	-11.335
ons	-11.3351
▁mensagem	-11.3353
▁Geográfica	-11.3353
▁Aceraceae	-11.3354
má	-11.3354
▁complexos	-11.3355
▁detentor	-11.3356
▁Brand	-11.3356
ví	-11.3356
▁Tais	-11.3361
▁nomeou	-11.3363
▁primário	-11.3363
ija	-11.3363
▁Palmeiras	-11.3363
▁temática	-11.3363
amo	-11.3364
▁empate	-11.3366
▁secundário	-11.3367
▁aplicativo	-11.3367
▁aparentemente	-11.3368
▁clara	-11.3369
är	-11.3369
mini	-11.337
▁preços	-11.337
eck	-11.3371
▁Atlas	-11.3371
▁Tudo	-11.3372
▁borda	-11.3372
flu	-11.3373
▁Az	-11.3375
ago	-11.3378
▁avô	-11.3381
▁Marx	-11.3381
▁fenômenos	-11.3382
fina	-11.3382
▁Figueiredo	-11.3382
▁Ry	-11.3383
▁vendendo	-11.3385
▁Amaral	-11.3385
▁critérios	-11.3388
anta	-11.3391
▁podia	-11.3391
▁Rodovia	-11.3392
▁Scarabaeidae	-11.3392
▁Wikipédia	-11.3392
▁sinônimo	-11.3392
▁rione	-11.3392
_{0}	-11.3392
marca	-11.3393
▁gerações	-11.3394
▁Flor	-11.3394
nidae	-11.3395
▁performances	-11.3395
ware	-11.3395
▁anexo	-11.3395
ee	-11.3398
▁MA	-11.3398
▁Berlin	-11.3399
▁acerca	-11.34
▁estuda	-11.3401
▁Pokémon	-11.3401
▁minerais	-11.3402
▁Kids	-11.3403
ici	-11.3404
▁tarefas	-11.3405
▁introduzida	-11.3406
TA	-11.3407
▁haja	-11.3407
▁Pur	-11.3407
▁Viseu	-11.3409
▁concepção	-11.3412
▁indústrias	-11.3412
▁Ple	-11.3412
▁participando	-11.3413
▁Iguaçu	-11.3413
Saint	-11.3413
dá	-11.3413
▁armado	-11.3415
▁Mãe	-11.3416
▁mantida	-11.3416
▁destruída	-11.3421
▁centrais	-11.3423
▁espada	-11.3424
▁seca	-11.3425
boy	-11.3425
▁00-00.	-11.3426
▁Sacro	-11.3426
ssel	-11.3426
▁FA	-11.343
▁hidrográfica	-11.3431
ա	-11.3431
worth	-11.3432
▁Marcus	-11.3432
▁Virginia	-11.3438
iaceae	-11.3439
▁acaba	-11.3439
▁terminar	-11.3442
▁Ator	-11.3445
▁crença	-11.3446
get	-11.3446
IATA	-11.345
▁Vancouver	-11.345
▁Jefferson	-11.345
▁radical	-11.345
king	-11.3451
bes	-11.3452
▁Fundo	-11.3452
▁Barreto	-11.3453
leg	-11.3454
osos	-11.3454
▁arqueológico	-11.3455
ר	-11.3457
Si	-11.3458
▁girl	-11.3458
▁transformou	-11.346
▁Brito	-11.3462
▁Humanidade	-11.3463
▁vendida	-11.3464
▁Formado	-11.3465
▁Asteraceae	-11.347
▁teórica	-11.347
amente	-11.347
▁Android	-11.3471
▁hard	-11.3473
▁Juntamente	-11.3473
▁oportunidade	-11.3475
sum	-11.3479
▁reputação	-11.3479
▁Ribeirão	-11.3483
bis	-11.3484
▁alma	-11.3485
▁Junta	-11.3485
▁voltado	-11.3488
!"	-11.3489
▁encontrou	-11.3491
▁exatamente	-11.3492
▁má	-11.3492
▁Berkeley	-11.3493
gus	-11.3496
▁alfa	-11.3497
▁Mid	-11.3499
▁Relações	-11.3499
▁Point	-11.3499
▁supostamente	-11.3501
IA	-11.3506
▁colonização	-11.3509
▁Š	-11.3509
▁Camargo	-11.3509
tempo	-11.3511
▁Ant	-11.3512
▁comunas	-11.3513
▁formatos	-11.3513
ED	-11.3515
▁Moscovo	-11.3519
)".	-11.352
▁Participaram	-11.352
▁reduzido	-11.3521
▁postais	-11.3521
▁Hei	-11.3524
vil	-11.3525
▁laboratório	-11.3525
▁Lau	-11.3526
▁recordes	-11.3527
▁Herbert	-11.3527
ò	-11.3528
▁Técnica	-11.3528
▁informa	-11.353
▁comissão	-11.353
MI	-11.3531
▁Turismo	-11.3532
rinho	-11.3533
tano	-11.3533
▁art	-11.3534
▁Place	-11.3536
IN	-11.3537
▁Margaret	-11.3538
▁Bruxelas	-11.354
▁Garden	-11.354
zh	-11.3542
ect	-11.3542
ami	-11.3543
▁Mah	-11.3547
▁Fl	-11.3548
▁Grão	-11.3548
▁Age	-11.355
core	-11.3552
cente	-11.3558
EL	-11.3558
▁Carneiro	-11.3558
▁Brothers	-11.356
eti	-11.3561
▁Oceania	-11.3561
ern	-11.3562
▁00/00/0000	-11.3563
▁construídas	-11.3567
▁vegetais	-11.3568
▁disputaram	-11.3568
▁pt	-11.3572
gla	-11.3572
▁amostra	-11.3572
▁relaciona	-11.3573
▁operar	-11.3574
▁Í	-11.3577
sat	-11.3578
▁Vir	-11.3579
▁africano	-11.358
ifica	-11.3582
▁Len	-11.3583
▁barreiras	-11.3586
^{	-11.3587
eng	-11.3587
▁MHz	-11.3587
▁hardware	-11.3588
▁Dominicana	-11.3589
▁cavaleiro	-11.3595
hop	-11.3596
▁pul	-11.3597
▁convencional	-11.3597
▁anuais	-11.3598
▁Fábio	-11.3598
banda	-11.3601
▁desenhado	-11.3601
▁enviou	-11.3601
▁Oficial	-11.3602
▁sequências	-11.3602
mond	-11.3604
pura	-11.3605
▁Roy	-11.3606
▁Cinturão	-11.3607
▁legislativo	-11.3607
▁Ocidente	-11.3607
▁Volume	-11.3608
▁Gru	-11.3608
▁Sai	-11.3609
ída	-11.361
▁competiram	-11.3611
▁Cir	-11.3611
ncia	-11.3611
▁Melbourne	-11.3612
teca	-11.3613
ро	-11.3614
▁Coronel	-11.3615
▁retorna	-11.3616
▁А	-11.3617
Du	-11.3618
rid	-11.3618
▁alimento	-11.3619
dez	-11.3619
ño	-11.362
aldo	-11.3621
▁USS	-11.3621
▁Alfa	-11.3622
▁LGBT	-11.3623
▁Joana	-11.3626
▁familiares	-11.3626
ár	-11.3626
▁WTA	-11.3629
▁incorpora	-11.3632
▁Madagáscar	-11.3637
▁discussão	-11.3637
▁apelidado	-11.3641
▁ocupando	-11.3643
▁Modern	-11.3645
▁adulto	-11.3645
▁cobra	-11.3646
▁People	-11.3647
▁Atuou	-11.3647
▁indi	-11.365
▁relativa	-11.3652
▁peito	-11.3654
▁Gol	-11.3655
▁Roque	-11.3655
▁Express	-11.3655
▁Wagner	-11.3657
0%	-11.3657
▁Boeing	-11.3658
▁cume	-11.3658
▁Nepal	-11.3658
▁(0000-00)	-11.3658
ife	-11.366
cida	-11.3664
▁intérprete	-11.3665
iidae	-11.3666
VA	-11.3667
▁correntes	-11.3673
▁(0):	-11.3675
lor	-11.3676
▁estrutural	-11.3677
▁gabinete	-11.3677
▁móvel	-11.3677
▁SE	-11.3678
tó	-11.368
▁rodas	-11.3683
▁essencial	-11.3684
▁Resolução	-11.3687
▁0000000000000	-11.3687
▁(0,0	-11.3691
kel	-11.3693
▁secas	-11.3694
▁aconteceram	-11.3695
rec	-11.3695
▁Saga	-11.3696
▁construiu	-11.3697
tivismo	-11.3697
▁Artur	-11.3699
nic	-11.37
▁Bem	-11.3701
▁africana	-11.3702
▁amante	-11.3702
▁Fran	-11.3704
▁Orange	-11.3704
▁Classic	-11.3705
mida	-11.3705
▁mínima	-11.3707
▁Claude	-11.3711
▁executar	-11.3712
▁exílio	-11.3712
▁Passa	-11.3714
▁conheceu	-11.3714
▁Coleoptera	-11.3717
▁associa	-11.3718
▁resultante	-11.3718
▁sítios	-11.3721
▁Force	-11.3722
▁Ir	-11.3722
▁investimentos	-11.3723
▁semelhança	-11.3726
▁juventude	-11.3727
▁embarcações	-11.3727
árias	-11.3728
▁separa	-11.3728
▁Bac	-11.3734
▁Amaro	-11.3735
▁falar	-11.3736
dição	-11.3736
▁conferência	-11.3736
▁Gregório	-11.3737
▁Sel	-11.3738
Men	-11.3741
▁conhece	-11.3744
ops	-11.3746
▁furacões	-11.3747
fon	-11.3747
▁Dallas	-11.3748
ος	-11.375
▁envolveu	-11.3752
▁Boi	-11.3752
eau	-11.3752
▁raiz	-11.3753
▁paga	-11.3754
▁sabor	-11.3754
▁Tipo	-11.3755
▁erro	-11.3756
teiro	-11.3758
▁Taka	-11.3761
Fe	-11.3761
▁separada	-11.3761
▁adolescentes	-11.3763
▁sugere	-11.3764
rey	-11.3767
▁Dra	-11.3771
▁MC	-11.3772
▁Nogueira	-11.3773
▁Imp	-11.3775
We	-11.3775
▁Country	-11.3776
▁Stanley	-11.3778
scar	-11.3779
ológica	-11.3782
▁mora	-11.3782
▁referem	-11.3783
▁arena	-11.3783
▁interpretando	-11.3784
ssen	-11.3787
▁Bósnia	-11.3787
▁Mérito	-11.3787
▁policiais	-11.3787
▁distribuída	-11.3787
IV	-11.3788
eur	-11.379
▁pronúncia	-11.3793
▁parlamentares	-11.3793
▁Jennifer	-11.3797
▁vulcão	-11.3797
nada	-11.3798
▁ingleses	-11.3798
▁variados	-11.3801
reu	-11.3801
▁certame	-11.3803
▁quadros	-11.3805
▁oxigênio	-11.3807
▁egípcio	-11.3808
▁deficiência	-11.3808
▁Pré	-11.3809
▁entrevistas	-11.381
▁lida	-11.381
▁Cent	-11.3812
▁Med	-11.3812
▁Faro	-11.3813
▁alimentar	-11.3813
▁Zurique	-11.3815
kha	-11.3816
▁Noroeste	-11.3817
rze	-11.3819
▁Teo	-11.3821
ill	-11.3821
▁Aos	-11.3822
▁García	-11.3827
▁Century	-11.3827
▁Robin	-11.3829
RP	-11.383
▁cantar	-11.383
▁diploma	-11.3831
EA	-11.3836
▁Gonzaga	-11.3837
▁Líbano	-11.3837
▁aumenta	-11.3837
▁nucleares	-11.384
▁Isaac	-11.384
▁oferecer	-11.3842
▁turca	-11.3844
▁Antiguidade	-11.3848
▁agrícolas	-11.3848
cado	-11.385
▁norma	-11.3852
▁Elas	-11.3853
final	-11.3853
mate	-11.3857
▁Concílio	-11.3858
▁Grant	-11.3858
reg	-11.3858
▁Summer	-11.3859
▁nazista	-11.386
▁Mun	-11.386
▁Bala	-11.3861
▁Like	-11.3862
aga	-11.3863
Ko	-11.3865
▁relato	-11.3865
▁planetas	-11.3866
▁far	-11.3866
▁adicional	-11.387
▁band	-11.387
glio	-11.3871
▁determina	-11.3879
▁René	-11.388
▁geológico	-11.388
tam	-11.388
imento	-11.3884
▁administrativas	-11.3885
▁Jazz	-11.3887
▁Visconde	-11.3888
▁promocional	-11.3888
gr	-11.389
▁fracasso	-11.3891
ridae	-11.3892
▁MP	-11.3895
ό	-11.3895
estrutura	-11.3896
▁estreita	-11.3897
▁;	-11.3898
▁Universitário	-11.3898
▁bomba	-11.3899
▁navegador	-11.3904
▁morrer	-11.3906
teu	-11.3906
▁PT	-11.3907
▁poderoso	-11.3908
▁necessariamente	-11.3909
▁metrô	-11.3909
▁Carter	-11.3909
nz	-11.391
africano	-11.3913
▁aplicativos	-11.3915
▁las	-11.3915
?),	-11.3917
▁pró	-11.3917
awa	-11.3918
▁Adolf	-11.3919
▁reações	-11.3919
▁separados	-11.3921
▁Castle	-11.3924
▁Arkansas	-11.3926
▁Prado	-11.3928
▁Eleitoral	-11.393
mail	-11.3931
▁Buck	-11.3932
▁hipo	-11.3932
▁parceiro	-11.3932
▁Ring	-11.3934
▁abuso	-11.3934
▁Mono	-11.3934
vos	-11.3936
▁media	-11.3937
ales	-11.3939
▁Lloyd	-11.3939
▁dezesseis	-11.3939
▁Tavares	-11.3939
▁How	-11.3941
▁Wil	-11.3942
▁Medi	-11.3942
tadas	-11.3945
ه	-11.3945
ult	-11.3947
б	-11.3949
▁Lituânia	-11.3949
▁Joel	-11.3949
▁santuário	-11.3949
▁Trindade	-11.395
▁Creek	-11.3951
ativo	-11.3951
▁plana	-11.3952
▁Dos	-11.3952
▁Syn	-11.3954
▁contemporâneos	-11.3955
▁planalto	-11.396
г	-11.3961
ança	-11.3962
▁Cou	-11.3962
▁Silver	-11.3966
lata	-11.3966
▁Dre	-11.3966
▁Linnaeus	-11.3967
▁metais	-11.3967
▁frequente	-11.397
▁cerâmica	-11.397
▁Plantarum	-11.397
▁Hawk	-11.397
PI	-11.3971
▁Mesa	-11.3972
▁científicas	-11.3972
▁gera	-11.3973
▁Earth	-11.3973
▁Atlantic	-11.3974
▁Faria	-11.3976
udo	-11.3977
▁Francesco	-11.3978
▁Palma	-11.3978
▁considerar	-11.3981
▁MS	-11.3984
▁Kurt	-11.3987
▁Ing	-11.3987
▁Gilberto	-11.3988
ship	-11.3988
▁inimigo	-11.3992
▁ingressou	-11.3992
ole	-11.3993
▁crenças	-11.3995
▁Mill	-11.3997
ST	-11.3997
▁bizantina	-11.4001
▁estética	-11.4001
▁barragem	-11.4001
tável	-11.4002
▁índios	-11.4004
dida	-11.4005
▁semanal	-11.4006
▁Charlotte	-11.4006
▁rotação	-11.4009
bru	-11.4009
▁participado	-11.4009
▁Town	-11.4012
▁Mora	-11.4014
▁Desta	-11.4015
▁observar	-11.4015
▁soldado	-11.4017
▁cra	-11.4017
pid	-11.4017
tipo	-11.4018
▁originou	-11.4021
xia	-11.4022
DI	-11.4023
▁esteja	-11.4024
▁Aveiro	-11.4028
phy	-11.4029
ntino	-11.403
▁_{	-11.403
▁elogios	-11.4032
grande	-11.4032
▁acabar	-11.4033
▁Martín	-11.4034
▁lembrado	-11.4036
▁dedica	-11.4039
▁Hora	-11.4039
▁Hol	-11.4045
▁descobertas	-11.4045
wick	-11.4047
▁portuguesas	-11.4047
▁efetiva	-11.4049
▁Geraldo	-11.4051
▁Amapá	-11.4053
▁oportunidades	-11.4057
ario	-11.4057
▁parques	-11.4058
▁podemos	-11.4059
▁Act	-11.406
Ti	-11.4062
▁emergência	-11.4063
▁gratuito	-11.4063
▁impedir	-11.4063
▁Independente	-11.4064
▁surgiram	-11.4064
▁Gary	-11.4065
▁classifica	-11.4065
feito	-11.4067
▁relatório	-11.4068
▁Kur	-11.4069
eja	-11.4073
▁Macedo	-11.4074
▁Dai	-11.4074
dita	-11.4075
ル	-11.4078
▁Gau	-11.4079
teira	-11.408
▁analisa	-11.4081
▁Andy	-11.4082
CM	-11.4083
ère	-11.4083
icos	-11.4083
▁Ak	-11.4083
▁sertaneja	-11.4083
▁Moderna	-11.4086
υ	-11.4086
▁limita	-11.4087
▁Sean	-11.4087
▁receita	-11.409
avi	-11.4092
pat	-11.4092
guerra	-11.4093
▁derivados	-11.4094
▁nosso	-11.4094
▁contínuo	-11.4094
▁formaram	-11.4096
TS	-11.4097
ores	-11.4103
▁Antártida	-11.4104
rena	-11.4105
▁estima	-11.4109
cção	-11.4114
▁acadêmicos	-11.4114
▁graves	-11.4114
ET	-11.4115
ácia	-11.4118
lidade	-11.4118
▁jogado	-11.4123
▁mostrou	-11.4125
▁financiamento	-11.4125
▁tira	-11.4126
▁Unidade	-11.4127
escrito	-11.4127
▁Wu	-11.4127
▁Eva	-11.4129
pá	-11.4131
▁residente	-11.4132
▁Lyon	-11.4134
spira	-11.4134
CR	-11.4138
▁poderá	-11.4138
▁mac	-11.414
▁terminais	-11.4142
▁espera	-11.4143
▁Kha	-11.4144
ína	-11.4145
▁provém	-11.4146
▁soberania	-11.4146
ი	-11.4146
▁Andre	-11.4149
lat	-11.415
▁legado	-11.415
cis	-11.4151
▁compôs	-11.4151
▁Gram	-11.4153
hausen	-11.4154
▁cargas	-11.4154
▁estradas	-11.4154
▁astronomia	-11.4156
▁associadas	-11.4158
rone	-11.4159
ango	-11.4159
▁temperaturas	-11.416
▁Edgar	-11.416
uck	-11.416
▁Ave	-11.4161
▁medo	-11.4162
guitarra	-11.4162
▁pay	-11.4165
▁Pul	-11.4166
▁Concelho	-11.4167
▁res	-11.4168
▁Erik	-11.4169
▁revelado	-11.4169
▁С	-11.4171
▁Grandes	-11.4171
▁pernas	-11.4171
▁wa	-11.4174
sor	-11.4174
▁Istambul	-11.4176
▁computacional	-11.4177
▁dramático	-11.4177
ა	-11.4177
▁galego	-11.4179
▁associações	-11.4179
ério	-11.418
▁aproximação	-11.418
Ge	-11.4182
▁comercializado	-11.4186
▁magistrado	-11.4188
▁mostram	-11.4188
▁Mesquita	-11.4188
▁colocou	-11.4188
▁Tower	-11.4189
▁gi	-11.4189
pis	-11.419
bot	-11.419
▁separadas	-11.419
▁citada	-11.419
CP	-11.4191
inhas	-11.4192
▁basquetebolista	-11.4192
▁exercer	-11.4193
▁Never	-11.4194
▁classificadas	-11.4198
▁ligas	-11.42
culo	-11.4203
ffer	-11.4207
iros	-11.4208
▁Gab	-11.4208
▁Lie	-11.4208
▁Cristóvão	-11.4209
▁Último	-11.4209
Oeste	-11.421
▁Kent	-11.4213
condado	-11.4216
▁SIC	-11.4218
▁sepultado	-11.4219
▁sessão	-11.422
DP	-11.4221
▁positivo	-11.4225
thy	-11.4226
▁Lorenzo	-11.4229
▁bits	-11.4229
▁Evangelho	-11.423
ndu	-11.423
▁comentarista	-11.423
▁partilha	-11.423
▁ligadas	-11.4234
▁acadêmica	-11.4237
▁Paço	-11.4238
Mor	-11.4239
▁ministério	-11.424
▁completar	-11.4241
▁passagens	-11.4242
▁Energia	-11.4242
▁investiga	-11.4243
Bar	-11.4243
▁coligação	-11.4243
NO	-11.4247
nin	-11.4248
nico	-11.4248
▁infra	-11.4248
▁externo	-11.4251
▁00°00'00.00"	-11.4253
▁Peri	-11.4257
▁funk	-11.4258
▁Zen	-11.426
press	-11.426
util	-11.4261
▁mente	-11.4261
▁Bis	-11.4261
▁Giuseppe	-11.4261
▁produzindo	-11.4262
▁Dean	-11.4262
▁aposentadoria	-11.4263
▁ensaios	-11.4265
Ju	-11.4268
▁conhecer	-11.4269
▁Num	-11.4272
▁argumento	-11.4273
▁arroz	-11.4273
▁Trek	-11.4276
▁atender	-11.428
mada	-11.4281
ificado	-11.4281
▁ficava	-11.4281
▁esfera	-11.4282
▁Apeadeiro	-11.4283
▁maciço	-11.4283
▁Dennis	-11.4283
▁alteração	-11.4283
Marie	-11.4287
Salvador	-11.429
quil	-11.4291
ênio	-11.4291
▁chineses	-11.4293
▁encerramento	-11.4294
▁Robinson	-11.4294
▁coleções	-11.4294
miti	-11.4296
rito	-11.4297
▁agências	-11.4303
▁quantidades	-11.4304
▁Flandres	-11.4304
▁conseguindo	-11.4304
edi	-11.4305
▁Luísa	-11.4306
▁Harrison	-11.4307
▁lic	-11.4307
▁Ei	-11.4315
▁reconhece	-11.4318
fia	-11.432
ália	-11.432
▁Secret	-11.4323
dem	-11.4324
▁Performance	-11.4325
quin	-11.433
UF	-11.433
she	-11.4331
▁domínios	-11.4332
▁European	-11.4333
▁proximidade	-11.4334
▁aplica	-11.4335
▁concessão	-11.4336
▁Sciences	-11.4337
▁Original	-11.434
▁premiada	-11.4345
rel	-11.4345
▁sé	-11.4345
non	-11.4346
▁Aquáticos	-11.4346
ulação	-11.4346
▁Quénia	-11.4346
▁difusão	-11.4347
▁americanas	-11.4351
TI	-11.4352
▁consecutivos	-11.4355
rch	-11.4355
▁assume	-11.4356
▁Cleveland	-11.4356
▁Systems	-11.4357
▁colapso	-11.4357
▁civilização	-11.4361
▁Mauro	-11.4365
gues	-11.4365
▁Fama	-11.4366
Sha	-11.4366
▁Four	-11.4367
▁Wikisource	-11.4368
anto	-11.4369
cke	-11.4369
tria	-11.4369
▁Muito	-11.437
▁Aero	-11.437
▁Mind	-11.4371
▁Stro	-11.4373
rian	-11.4374
▁Freire	-11.4374
▁Basquete	-11.4378
ва	-11.4378
▁Luciano	-11.4382
dus	-11.4385
Pre	-11.4386
▁Cine	-11.4387
▁jurídico	-11.4388
▁Raimundo	-11.4389
▁Castilla	-11.4389
▁Marfim	-11.439
▁Ocupa	-11.4391
tl	-11.4391
▁britânicas	-11.4392
terna	-11.4395
▁templos	-11.4397
▁Alt	-11.4398
▁Baseball	-11.44
▁Portanto	-11.4401
NA	-11.4401
▁folk	-11.4402
ни	-11.4403
reto	-11.4405
▁lar	-11.4405
urs	-11.4405
tinga	-11.4405
▁Sei	-11.4408
nc	-11.4408
fort	-11.4408
▁fungos	-11.4409
▁transformada	-11.4415
▁desempenhou	-11.4417
sumi	-11.4419
ôn	-11.4419
▁bolsa	-11.4421
▁academia	-11.4421
▁convento	-11.4422
▁Rosário	-11.4422
▁editorial	-11.4422
▁socialista	-11.4423
tier	-11.4428
▁His	-11.4428
light	-11.443
kon	-11.443
▁vistas	-11.4432
▁Aguiar	-11.4432
▁certificação	-11.4432
▁mostrando	-11.4433
▁Store	-11.4434
▁Arma	-11.4435
▁Prêmios	-11.4436
hin	-11.4436
ob	-11.4438
nsa	-11.4438
ort	-11.4438
rbi	-11.4439
▁Escreveu	-11.4444
▁gases	-11.4444
eva	-11.4446
▁desporto	-11.4446
mita	-11.4448
UR	-11.4449
▁Lil	-11.445
▁Tag	-11.4452
▁mau	-11.4452
ith	-11.4453
▁Fátima	-11.4454
▁Frankfurt	-11.4456
▁Cana	-11.4457
▁With	-11.4458
evich	-11.446
zbach	-11.4463
{\	-11.4464
▁acreditam	-11.4464
س	-11.4466
▁planejado	-11.4467
▁separado	-11.4472
▁Transportes	-11.4475
▁Caminho	-11.4476
▁Frederick	-11.4477
stad	-11.4479
▁macro	-11.4481
▁museus	-11.4483
▁governamentais	-11.4485
▁cancelada	-11.4486
▁Humano	-11.4487
▁cópia	-11.4488
▁gado	-11.449
sser	-11.4491
uco	-11.4492
stin	-11.4492
▁Fria	-11.4495
▁ven	-11.4496
▁tocou	-11.4499
▁Vive	-11.4499
▁Reforma	-11.4501
▁doutor	-11.4501
fic	-11.4503
Sal	-11.4503
▁Lar	-11.4505
▁Tito	-11.4507
idi	-11.4507
pí	-11.4507
▁Mercado	-11.4508
PM	-11.4508
▁Pad	-11.4511
▁fina	-11.4515
▁Magno	-11.4516
▁Salomão	-11.4518
▁álcool	-11.4518
▁ICAO	-11.4518
▁00/00	-11.4521
rot	-11.4522
try	-11.4523
▁necessários	-11.4523
▁servia	-11.4524
▁atende	-11.4525
▁aldeias	-11.4526
ب	-11.4528
▁Master	-11.4529
▁mede	-11.4529
▁propriamente	-11.4529
▁−00°	-11.4529
▁val	-11.4535
▁?	-11.4535
▁brancos	-11.4536
▁ab	-11.4538
▁aposentado	-11.4538
▁envolvimento	-11.454
▁conversão	-11.4541
▁queijo	-11.4541
▁euros	-11.4541
CN	-11.4542
▁Walker	-11.4543
isa	-11.4545
▁Xadrez	-11.4551
▁egípcia	-11.4551
▁sitcom	-11.4551
▁panorama	-11.4551
▁vozes	-11.4552
▁deslocamento	-11.4553
▁torres	-11.4554
Don	-11.4557
▁critica	-11.4561
▁opiniões	-11.4562
▁repórter	-11.4562
▁mistério	-11.4562
tual	-11.4564
▁listados	-11.4564
▁Fair	-11.4565
ч	-11.4566
ame	-11.4569
▁consegue	-11.4571
▁flora	-11.4571
ntal	-11.4572
▁Madalena	-11.4573
▁judicial	-11.4573
▁vigésimo	-11.4573
▁Tiago	-11.4574
▁demografia	-11.4574
▁agrupa	-11.4574
ora	-11.4579
▁Raul	-11.4583
▁cubewano	-11.4584
▁hemisfério	-11.4584
mara	-11.4584
▁dublador	-11.4584
▁excelente	-11.4586
▁Greg	-11.4586
▁registo	-11.4586
cena	-11.4587
TC	-11.4587
rana	-11.459
▁licenciado	-11.4591
sign	-11.4594
ɛ	-11.4594
▁Executivo	-11.4594
ри	-11.4596
parte	-11.46
ali	-11.4601
▁Pic	-11.4601
▁distribuídas	-11.4605
▁Bangladesh	-11.4605
▁Botswana	-11.4605
▁automobilismo	-11.4605
▁Malawi	-11.4606
▁jogabilidade	-11.4607
▁ofício	-11.4607
▁Kai	-11.4611
▁plural	-11.4612
▁transformado	-11.4613
▁boas	-11.4614
▁magnético	-11.4615
▁controlado	-11.4616
▁nomenclatura	-11.4616
▁Arnold	-11.4617
▁Warren	-11.4617
▁Matriz	-11.4618
▁conhecimentos	-11.462
▁Bun	-11.4621
▁Luna	-11.4623
▁escreve	-11.4624
▁recusa	-11.4625
▁dissolução	-11.4627
▁chuvas	-11.4628
▁fotografias	-11.463
▁Lagos	-11.4631
▁0000/0000,	-11.4633
▁Fogo	-11.4636
▁Federation	-11.4638
▁radicado	-11.4638
▁básica	-11.4641
▁paróquias	-11.4641
▁list	-11.4642
▁Say	-11.4643
▁Hai	-11.4643
▁serviram	-11.4644
▁Cos	-11.4644
hat	-11.4645
▁Helen	-11.4646
▁Lost	-11.4646
eh	-11.4651
▁pensa	-11.4651
lhos	-11.4653
RJ	-11.4653
▁esquerdo	-11.4654
▁celebra	-11.4654
censo	-11.4655
▁Cama	-11.4658
▁Yan	-11.4662
run	-11.4662
▁quadri	-11.4665
tinho	-11.4665
▁recebem	-11.4666
▁PS	-11.4666
OP	-11.4669
▁Barry	-11.467
▁intimamente	-11.4671
▁consistia	-11.4671
▁extenso	-11.4671
yi	-11.4672
▁barroco	-11.4673
▁amarela	-11.4675
BS	-11.4675
▁gal	-11.4681
bate	-11.4682
rma	-11.4685
fun	-11.4686
▁Atua	-11.4686
▁Service	-11.4687
▁Pink	-11.4691
▁jogando	-11.4692
uli	-11.4692
市	-11.4693
▁seco	-11.4694
▁geográficas	-11.4695
▁nacionalidade	-11.4699
queiro	-11.4699
pela	-11.47
▁Canto	-11.4702
θ	-11.4703
▁rara	-11.4704
ān	-11.4705
▁sobrevivência	-11.4705
yr	-11.4705
▁pouso	-11.4705
▁estabelece	-11.4706
▁Cantão	-11.4707
▁comida	-11.4708
mani	-11.4708
▁retrato	-11.471
▁comercialmente	-11.471
▁Ny	-11.4711
pole	-11.4713
▁Saxe	-11.4714
sville	-11.4715
▁Félix	-11.4715
▁atingido	-11.4715
▁Edição	-11.4716
tida	-11.4716
lato	-11.4716
▁Ernest	-11.4717
ares	-11.4719
▁Year	-11.472
▁Pé	-11.4723
▁Santarém	-11.4725
▁secção	-11.4725
mino	-11.4726
▁Acesso	-11.4727
▁Dentro	-11.4727
▁Bureau	-11.4728
▁saltos	-11.4729
▁fazenda	-11.4734
put	-11.4734
▁Atlântica	-11.4737
▁Inácio	-11.4739
▁lazer	-11.4742
▁Blo	-11.4743
▁presta	-11.4745
cana	-11.4746
evo	-11.4747
▁explora	-11.4748
▁arrondissement	-11.4749
▁Sebastian	-11.4749
▁00000...	-11.475
▁Bevölkerung	-11.475
▁coleta	-11.475
▁coberta	-11.4753
▁curtos	-11.4754
▁lunar	-11.4754
▁Italiano	-11.4757
▁oral	-11.4758
▁autônoma	-11.476
▁intelectuais	-11.476
▁website	-11.476
▁Harold	-11.4762
▁taxas	-11.4762
▁diretores	-11.4763
▁tenente	-11.4766
▁Cop	-11.4769
rata	-11.477
▁promove	-11.4771
▁Crambidae	-11.4771
▁califa	-11.4771
▁PA	-11.4774
▁tetra	-11.4776
▁elaborado	-11.4777
▁Urbano	-11.4778
▁Gabinete	-11.4782
▁Roraima	-11.4782
▁arquitecto	-11.4782
▁Ontário	-11.4782
▁Amazon	-11.4782
AD	-11.4786
sede	-11.4786
▁Cam	-11.4786
▁pal	-11.4788
ório	-11.4789
▁desempenha	-11.479
▁0/0	-11.479
plex	-11.479
▁vender	-11.4793
▁iraniano	-11.4793
▁Dick	-11.4796
timo	-11.4797
▁gosto	-11.4797
▁Pau	-11.4797
ize	-11.4803
▁Agostinho	-11.4804
▁crédito	-11.4804
▁Field	-11.4806
▁Aga	-11.4807
▁costumes	-11.4807
▁biográfico	-11.4808
phe	-11.4809
▁Was	-11.4812
▁juvenil	-11.4815
▁restrita	-11.4815
▁milímetros	-11.4815
▁ocorridos	-11.4816
▁Knight	-11.4816
▁nervoso	-11.4816
▁conserva	-11.4817
▁afeta	-11.4818
NE	-11.4818
▁Considerado	-11.482
▁pobres	-11.482
▁Bryan	-11.4821
▁Recording	-11.4825
▁(0)	-11.4826
▁Campanha	-11.4827
▁Pseudo	-11.483
ör	-11.4832
▁Bush	-11.4834
▁Kiss	-11.4836
▁Has	-11.4836
▁sonoridade	-11.4838
▁Apollo	-11.4838
▁destacando	-11.4841
bé	-11.4841
▁tratados	-11.4844
▁Franca	-11.4845
CT	-11.4846
tério	-11.4847
▁live	-11.4848
▁Renascimento	-11.4849
▁Meridiano	-11.4849
▁Bourbon	-11.4849
▁Stuart	-11.4849
▁Augusta	-11.4849
▁quadras	-11.4851
▁Lab	-11.4851
▁Bach	-11.4852
▁soul	-11.4852
▁administra	-11.4852
▁Run	-11.4852
▁lin	-11.4853
▁Minho	-11.4855
▁Vincent	-11.4855
rido	-11.4856
inter	-11.4859
▁González	-11.486
▁norueguesa	-11.486
▁Jamaica	-11.486
▁Saboia	-11.486
▁indicar	-11.4861
pica	-11.4862
▁Possuía	-11.4864
▁continentes	-11.4866
▁pioneira	-11.4867
itos	-11.4868
▁novelas	-11.4869
▁cer	-11.487
ì	-11.4871
▁oposto	-11.4874
▁ângulo	-11.4875
▁Criada	-11.4875
▁subiu	-11.4876
▁respectivos	-11.4876
▁Juiz	-11.4877
ncial	-11.4878
tuba	-11.4879
▁Mundiais	-11.4883
▁Epi	-11.4885
▁م	-11.4885
BC	-11.4885
▁Gaspar	-11.4888
▁marítima	-11.4889
▁mensal	-11.489
▁UHF	-11.4895
Leste	-11.4895
▁igualdade	-11.4895
▁reinos	-11.4895
▁recuperar	-11.4896
▁desportivo	-11.4897
▁controvérsia	-11.4901
▁complexa	-11.4901
ά	-11.4902
▁Party	-11.4903
cap	-11.4904
▁suíça	-11.4905
▁Hau	-11.4907
▁Meta	-11.4912
▁tende	-11.4912
All	-11.4915
▁Met	-11.4916
▁consulta	-11.4916
▁See	-11.4917
gs	-11.492
posi	-11.492
▁Review	-11.492
uel	-11.4924
▁retirado	-11.4927
▁Baker	-11.4927
▁Kriegsmarine	-11.4928
smo	-11.4928
americanas	-11.4928
▁Seven	-11.4929
▁psicológico	-11.4929
▁Tanto	-11.4929
▁meu	-11.4929
shima	-11.493
ótico	-11.493
RM	-11.4931
xy	-11.4932
▁incluídos	-11.4933
▁antigamente	-11.4934
▁Mississippi	-11.4934
▁renovada	-11.4939
▁herança	-11.4939
▁Sc	-11.4939
▁Foz	-11.4942
▁controlada	-11.4945
vu	-11.4947
▁polaco	-11.4948
і	-11.495
telecomunicações	-11.495
▁Est	-11.4952
▁concluiu	-11.4953
série	-11.4954
▁Parti	-11.4955
▁imita	-11.4955
▁nobres	-11.4957
▁Zero	-11.4957
▁turística	-11.4958
▁Pietro	-11.4959
▁Seattle	-11.4959
▁tarefa	-11.496
▁inspirou	-11.4962
▁arranha	-11.4962
▁Sejm	-11.4962
fec	-11.4963
▁Mak	-11.4969
rium	-11.4969
▁Nicholas	-11.4973
▁ilegal	-11.4973
ecido	-11.4976
▁trilhas	-11.4978
▁Australian	-11.4978
▁encontrava	-11.4979
▁usos	-11.498
▁urbanos	-11.4981
▁Kas	-11.4983
pai	-11.4983
▁Campbell	-11.4984
▁adulta	-11.4984
▁Hudson	-11.4984
▁comunicações	-11.4985
deiro	-11.4987
▁Qu	-11.4987
▁Shan	-11.4988
▁facilitar	-11.4991
▁múltiplas	-11.4993
gata	-11.4993
ax	-11.4995
▁Macedônia	-11.4996
Lei	-11.4996
▁chu	-11.4996
▁privadas	-11.4998
ust	-11.4998
▁Hip	-11.4999
▁Wo	-11.5
hm	-11.5001
▁Nuno	-11.5006
nom	-11.5006
▁infantaria	-11.5007
▁disputas	-11.5008
ech	-11.5008
▁ganho	-11.5009
▁definitivamente	-11.501
IL	-11.5014
▁escolher	-11.5014
▁gar	-11.5015
▁morcego	-11.5016
enne	-11.5018
▁proporciona	-11.5018
▁Legend	-11.5021
perante	-11.5023
▁Pha	-11.5024
▁filhas	-11.5028
ular	-11.503
tona	-11.5031
ου	-11.5032
fei	-11.5036
▁Esco	-11.5037
▁Head	-11.5037
▁Barbara	-11.5038
▁origina	-11.5041
▁consenso	-11.5041
▁Cher	-11.5043
▁Whit	-11.5044
▁Leopoldo	-11.5047
▁preparado	-11.5049
▁existia	-11.5052
▁econômicos	-11.5052
▁Estêvão	-11.5053
▁adequado	-11.5053
▁Hero	-11.5053
Pomerânia	-11.5054
▁Cru	-11.5058
mol	-11.5059
pper	-11.5063
▁abandonado	-11.5066
▁quaisquer	-11.5066
lac	-11.5066
çado	-11.5068
▁Arquivo	-11.5068
▁Empresa	-11.5068
fus	-11.5071
▁Cin	-11.5071
▁teriam	-11.5072
▁tornam	-11.5073
▁Das	-11.5074
iger	-11.5075
▁educacional	-11.5076
▁Tokyo	-11.5076
▁decoração	-11.5076
▁promotor	-11.5076
▁gradualmente	-11.5077
▁pontuação	-11.5077
▁artísticos	-11.5078
▁Tau	-11.5079
▁transformar	-11.5081
▁Contou	-11.5081
▁Esqui	-11.5082
▁doméstico	-11.5082
▁cogumelos	-11.5086
▁Griffith	-11.5087
▁Borgonha	-11.5087
▁nó	-11.5088
gráfico	-11.5088
▁revisão	-11.509
▁Colle	-11.5091
hai	-11.5092
fini	-11.5093
▁Beck	-11.5094
▁declarada	-11.5095
Italia	-11.5095
▁localizava	-11.5095
rama	-11.5098
▁Mathematica	-11.5098
▁percepção	-11.5099
▁adotou	-11.5099
▁Gon	-11.51
▁radi	-11.5103
▁Sergio	-11.5104
▁receptor	-11.5106
MT	-11.5107
▁Nacionais	-11.5107
key	-11.5109
▁epi	-11.5109
▁Pira	-11.5118
orum	-11.512
▁espetáculo	-11.5121
ß	-11.5121
enha	-11.5121
ças	-11.5122
▁pântanos	-11.5123
▁ensina	-11.5124
AF	-11.5126
uti	-11.5127
áceas	-11.5127
down	-11.5128
DO	-11.5128
▁Ártico	-11.5133
▁atinge	-11.5133
▁Hesse	-11.5134
▁From	-11.5134
▁restauração	-11.5134
▁opção	-11.5134
β	-11.5135
rial	-11.5135
bad	-11.5136
▁fal	-11.5136
▁Agricultura	-11.5137
▁distribui	-11.5138
▁world	-11.5141
ical	-11.5142
SM	-11.5142
▁batizado	-11.5143
ún	-11.5143
▁provoca	-11.5143
▁López	-11.5145
▁dinamarquesa	-11.5145
▁enterrado	-11.5145
▁negociações	-11.5145
▁Congregação	-11.5145
▁Slam	-11.5146
constru	-11.5146
▁filiada	-11.5148
▁colo	-11.5148
▁Nem	-11.5148
▁atuações	-11.5148
▁Jogo	-11.5149
▁Detroit	-11.515
quim	-11.515
nista	-11.5151
▁Crime	-11.5152
▁pseudo	-11.5152
▁candidata	-11.5157
▁dirigente	-11.5157
▁cuidados	-11.5157
▁estatísticas	-11.516
▁coadjuvante	-11.5161
▁Magic	-11.5161
0.0	-11.5162
▁Houve	-11.5162
NBA	-11.5163
▁Mos	-11.5165
ej	-11.5166
▁*	-11.5166
▁indie	-11.5167
▁adversário	-11.5167
▁Arg	-11.5169
▁Mann	-11.5169
ccio	-11.5172
▁jornalistas	-11.5174
cari	-11.5177
▁imperadores	-11.5178
▁publicar	-11.5178
▁candidatura	-11.5179
▁Teodoro	-11.5179
▁IN	-11.5185
oku	-11.5186
▁sofrer	-11.5187
orden	-11.5187
▁Francisca	-11.5189
▁Cali	-11.5189
▁Josef	-11.519
Roma	-11.519
▁compostas	-11.519
▁(00)	-11.5191
▁Lactarius	-11.5191
▁Thompson	-11.5191
▁comerciante	-11.5191
▁Broadcasting	-11.5191
▁divulgado	-11.5193
primeiro	-11.5194
quart	-11.5195
▁sépalas	-11.5195
▁lutar	-11.5196
▁Jin	-11.5197
▁Verdade	-11.5197
▁companheiros	-11.5198
▁coordenadas	-11.52
çu	-11.5201
quer	-11.5202
▁paciente	-11.5203
▁Gay	-11.5204
Wa	-11.5204
You	-11.5205
tini	-11.5205
som	-11.5205
▁capitais	-11.5205
cionista	-11.5206
AA	-11.5207
pens	-11.5207
▁árbitro	-11.521
lev	-11.5211
▁Luftwaffe	-11.5214
▁Sampaio	-11.5214
▁Theraphosidae	-11.5214
▁álgebra	-11.5214
▁Libertação	-11.5214
▁provenientes	-11.5215
omi	-11.5216
▁Carmen	-11.5218
▁Vai	-11.5219
▁produzem	-11.522
▁Honor	-11.5221
▁Gray	-11.5221
▁dentes	-11.5221
▁indicam	-11.5222
ст	-11.5224
▁racional	-11.5227
▁Vietname	-11.5227
▁Latin	-11.5228
Es	-11.5229
lva	-11.5233
▁Gustav	-11.5234
▁coloca	-11.5235
▁ko	-11.5235
▁Blu	-11.5236
▁0:0	-11.5238
▁peri	-11.5238
gren	-11.5238
▁protegida	-11.5238
mera	-11.5242
▁Fernanda	-11.5243
old	-11.5243
gate	-11.5244
▁Sorocaba	-11.5245
▁Grace	-11.5246
▁acomodações	-11.5249
▁cinematográfico	-11.5249
▁jurisdição	-11.5249
▁Computer	-11.5249
▁Budapeste	-11.5249
▁inscrições	-11.525
▁List	-11.5251
província	-11.5252
▁aproxima	-11.5252
▁fêmeas	-11.5253
▁visitada	-11.5254
▁Página	-11.5256
Ci	-11.5257
imo	-11.5258
▁Bolonha	-11.5259
▁explicar	-11.526
▁Contemporânea	-11.5261
▁Mendonça	-11.5261
▁Shakespeare	-11.5261
▁revelou	-11.5261
▁considerando	-11.5261
▁dispõe	-11.5261
▁luxo	-11.5261
▁mega	-11.5261
▁coronel	-11.5262
▁Neil	-11.5263
▁etnia	-11.5265
base	-11.5266
▁fundadora	-11.5267
▁circuitos	-11.5267
▁Mass	-11.5267
▁transferida	-11.5272
▁Madison	-11.5273
tai	-11.5273
▁propostas	-11.5273
▁Kate	-11.5274
neto	-11.5275
▁Cl	-11.5275
▁Saba	-11.5275
▁gran	-11.5277
▁reeleição	-11.5284
▁Ay	-11.5284
▁conversa	-11.5285
▁Seis	-11.5285
▁observações	-11.5286
tig	-11.5287
punha	-11.5288
▁determinados	-11.5289
▁Ré	-11.5289
ière	-11.5291
▁Pres	-11.5291
▁executada	-11.5292
▁Viva	-11.5294
▁tribunal	-11.5296
▁cavidade	-11.5296
▁dialetos	-11.5296
▁Assunção	-11.5296
▁ligeiramente	-11.5297
▁secundária	-11.5297
▁Dam	-11.5302
▁rebeldes	-11.5302
gueira	-11.5303
▁foguetes	-11.5303
▁machos	-11.5307
▁Honduras	-11.5307
▁patrono	-11.5307
Zipcodezoo	-11.5307
▁Inclui	-11.5308
▁Maurice	-11.5308
▁identifica	-11.5309
▁Ras	-11.5311
▁Khan	-11.5312
▁Parker	-11.5312
▁ossos	-11.5313
▁est	-11.5314
▁bíblico	-11.5319
▁recebida	-11.5319
▁trazer	-11.5319
▁Cata	-11.532
▁Fuji	-11.532
reo	-11.5321
▁arranjos	-11.5321
imi	-11.5322
mag	-11.5322
▁<	-11.5323
▁divididas	-11.5324
▁cidadão	-11.5326
▁Lé	-11.5326
▁linhagem	-11.5327
▁Brazil	-11.5332
▁Varsóvia	-11.5334
spor	-11.5336
▁Regina	-11.5338
▁Amy	-11.5339
▁frequentes	-11.5339
▁Emília	-11.5342
▁cortes	-11.5342
▁polêmica	-11.5343
▁Esperança	-11.5343
▁circula	-11.5343
▁diminuição	-11.5344
▁Valenciana	-11.5345
▁Sr	-11.5348
▁Stein	-11.5351
▁elaborada	-11.5354
▁Morris	-11.5354
▁homónima	-11.5354
▁milita	-11.5355
▁legais	-11.5355
▁gravidade	-11.5355
▁vizinha	-11.5356
▁sobreviventes	-11.5356
▁costeira	-11.5357
BB	-11.5362
gent	-11.5364
tê	-11.5365
ك	-11.5366
▁atendimento	-11.5366
▁cancelado	-11.5366
▁ensaísta	-11.5366
▁executiva	-11.5366
▁00000-00-00	-11.5366
▁Somália	-11.5367
▁secreto	-11.5367
▁soberano	-11.5369
▁boxe	-11.5375
▁Books	-11.5376
itária	-11.5377
▁estratégica	-11.5378
▁contêm	-11.5378
▁paisagens	-11.5378
▁entraram	-11.5379
▁necessita	-11.5383
ní	-11.5383
▁Side	-11.5383
not	-11.5384
▁remix	-11.5384
CL	-11.5386
▁qualificação	-11.5386
▁Sena	-11.539
fá	-11.5392
▁realizando	-11.5392
▁cartucho	-11.5393
▁Cape	-11.5393
▁Salt	-11.5393
▁astro	-11.5394
estilizado	-11.5394
▁jogava	-11.5394
▁regulamento	-11.5394
▁Francês	-11.5395
▁Hua	-11.5395
vide	-11.5398
mura	-11.5398
box	-11.5399
▁Petro	-11.5402
▁epífita	-11.5402
▁iguais	-11.5402
▁ressonância	-11.5402
大	-11.5402
▁Ambiente	-11.5402
▁vistos	-11.5402
ines	-11.5403
Buenos	-11.5406
blo	-11.5406
▁influenciada	-11.5406
Un	-11.5407
hiro	-11.5408
ínio	-11.5409
▁químicas	-11.5409
.000	-11.541
bico	-11.541
Vila	-11.5412
▁caules	-11.5414
▁Eddie	-11.5414
▁Here	-11.5415
▁Spe	-11.5415
▁votado	-11.5416
ien	-11.5417
▁funcionário	-11.5417
▁disciplinas	-11.5419
▁marinho	-11.542
▁gen	-11.5421
▁marinhos	-11.5424
logicamente	-11.5424
▁faroeste	-11.5426
▁nascente	-11.5427
dama	-11.5428
▁massas	-11.5428
▁consultor	-11.5431
▁Connecticut	-11.5431
▁estadunidenses	-11.5433
▁Division	-11.5434
▁Nicolas	-11.5434
▁Arcebispo	-11.5437
▁Mountain	-11.5437
▁cavalaria	-11.5437
▁triângulo	-11.5437
▁Ira	-11.5438
▁Armando	-11.5439
▁up	-11.5439
▁Page	-11.544
campeonato	-11.5441
▁planície	-11.5441
▁convidada	-11.5442
▁000-000),	-11.5447
▁pratica	-11.5448
▁Business	-11.5449
▁raro	-11.5451
▁Montes	-11.5451
ende	-11.5454
▁Hunter	-11.5456
▁pagar	-11.5457
▁Graça	-11.5458
▁Intel	-11.5458
▁fre	-11.5459
▁Rich	-11.5459
▁Mathematics	-11.5461
▁Rudolf	-11.5462
ppe	-11.5463
chel	-11.5463
abe	-11.5463
▁prepara	-11.5465
ful	-11.5466
▁assentamento	-11.5466
▁Dados	-11.5467
▁operada	-11.547
▁agregada	-11.5471
▁trabalham	-11.5471
chia	-11.5472
eca	-11.5477
ntia	-11.5478
leiro	-11.5478
rod	-11.548
▁Glen	-11.548
▁celulares	-11.5485
▁asiático	-11.5488
▁distinta	-11.549
ttle	-11.549
▁colaboradores	-11.5491
PL	-11.5492
dinha	-11.5493
▁companheiro	-11.5496
▁Cândido	-11.5497
▁Fight	-11.5497
▁facilidade	-11.5497
▁Infantaria	-11.5497
▁cho	-11.55
▁basal	-11.55
ür	-11.5501
Univers	-11.5501
vre	-11.5503
▁tur	-11.5505
▁Localizado	-11.5507
▁Aquitânia	-11.5509
▁implantação	-11.5509
▁dezoito	-11.5509
▁Comédia	-11.5509
wald	-11.551
▁permanecendo	-11.551
mã	-11.551
▁descobrir	-11.5519
▁Nebraska	-11.5519
▁Ponto	-11.5519
▁vôlei	-11.5521
▁moderado	-11.5521
▁Nar	-11.5522
▁Várias	-11.5524
unt	-11.5525
▁aprendizagem	-11.5525
direito	-11.5526
lheiro	-11.5527
osas	-11.5529
▁cento	-11.5529
ece	-11.553
▁Rodríguez	-11.5533
▁Senegal	-11.5533
▁amizade	-11.5533
▁barco	-11.5534
▁lua	-11.5536
▁Quer	-11.5537
▁Herman	-11.5539
▁republicano	-11.554
top	-11.554
elas	-11.5541
▁Fórum	-11.5545
▁gaúcho	-11.5545
▁Tunísia	-11.5545
▁sessões	-11.5545
▁dedicar	-11.5547
▁conquistaram	-11.555
iste	-11.5552
assi	-11.5553
▁Susan	-11.5553
▁Rossi	-11.5555
▁Laguna	-11.5557
▁Jac	-11.5564
▁sino	-11.5567
tária	-11.5567
mano	-11.5568
▁praticado	-11.5568
▁representações	-11.5569
▁doméstica	-11.5569
▁Ale	-11.5572
cut	-11.5573
▁Gian	-11.5577
▁decorrer	-11.5577
▁Caldas	-11.5578
▁Carol	-11.5579
▁russos	-11.558
▁camisa	-11.5581
nita	-11.5582
ack	-11.5582
ło	-11.5585
▁salão	-11.5586
▁urbanas	-11.5587
▁fragmentos	-11.5587
▁vinha	-11.5587
▁Esca	-11.5591
▁Link	-11.5592
▁Spencer	-11.5593
▁finlandesa	-11.5593
▁simboliza	-11.5593
▁Getúlio	-11.5593
▁fita	-11.5593
▁Polska	-11.5593
▁Cons	-11.5594
▁Luisiana	-11.5595
▁Kre	-11.5595
▁imediatas	-11.5596
▁Cava	-11.5597
▁sujeito	-11.5599
▁Ai	-11.5603
▁aparelhos	-11.5604
▁assemelha	-11.5605
▁URSS	-11.5605
ceae	-11.5605
▁Houten	-11.5605
▁disponibilizado	-11.5606
▁Action	-11.5606
enti	-11.5608
▁Exp	-11.561
▁concorrentes	-11.5611
▁troféu	-11.5612
▁pesado	-11.5613
set	-11.5615
▁Deve	-11.5615
▁cita	-11.5616
▁marítimo	-11.5617
▁transmitir	-11.5617
▁Rain	-11.5618
ц	-11.5619
▁emitida	-11.562
PD	-11.5621
▁cunhado	-11.5624
uff	-11.5626
▁filo	-11.5627
▁colaborou	-11.5629
▁Silésia	-11.5629
▁Coutinho	-11.5629
▁lenticular	-11.5629
▁gramática	-11.563
dom	-11.563
mie	-11.563
▁fauna	-11.5632
▁habitada	-11.5638
▁ética	-11.5638
fri	-11.5639
▁Brad	-11.564
▁inédito	-11.5641
▁combater	-11.5641
▁Raymond	-11.5642
▁montagem	-11.5642
▁Dé	-11.5642
Germânico	-11.5644
▁Jen	-11.5644
▁pri	-11.5647
▁ilustrado	-11.5647
▁proprietários	-11.5647
▁Hat	-11.5648
▁juntar	-11.5648
▁evidência	-11.5649
▁pres	-11.5651
aux	-11.5652
▁laranja	-11.5652
▁IDH	-11.5653
▁Theatre	-11.5654
▁Bé	-11.5654
stal	-11.5654
rai	-11.5656
▁Árabes	-11.5656
▁significando	-11.5659
adi	-11.566
ologista	-11.5661
▁neve	-11.5662
nard	-11.5664
nne	-11.5665
▁gótico	-11.5668
▁mineiro	-11.5669
▁Bet	-11.5669
▁Superman	-11.5671
até	-11.5675
▁matar	-11.5676
▁char	-11.5678
▁Sardenha	-11.5678
▁polínias	-11.5678
▁datado	-11.5679
▁Liverpool	-11.5679
▁suporta	-11.5682
▁Nan	-11.5683
tten	-11.5684
▁ocorrendo	-11.5685
▁protagonistas	-11.5686
▁videogame	-11.5686
ciosa	-11.5687
▁Cairo	-11.5689
tarântulas	-11.569
▁Pontifícia	-11.569
▁austríaca	-11.569
▁rendimento	-11.569
▁faraó	-11.569
▁destacar	-11.569
▁exércitos	-11.569
▁Lis	-11.569
▁fur	-11.5691
▁elaboração	-11.5691
▁Lip	-11.5691
▁mol	-11.5695
▁best	-11.5696
éis	-11.5698
▁protótipo	-11.5698
▁reitor	-11.5699
▁Leonard	-11.57
▁mecanismos	-11.57
▁ouvido	-11.57
▁Hermann	-11.5701
▁Vêneto	-11.5702
IG	-11.5703
ifolia	-11.5704
▁Jung	-11.5708
!,	-11.5709
▁Box	-11.5709
▁profunda	-11.5709
▁Turner	-11.5712
▁militante	-11.5713
▁Had	-11.5714
mero	-11.5715
▁actor	-11.5715
▁pleno	-11.5715
▁Santuário	-11.5716
▁formações	-11.5716
▁participam	-11.5717
▁Tupi	-11.5717
▁presos	-11.5718
action	-11.5721
▁traços	-11.5722
▁rosto	-11.5722
▁0:00	-11.5725
▁Suriname	-11.5727
▁inteligente	-11.5727
▁Flu	-11.5727
▁comprou	-11.5727
▁derrotando	-11.5729
Am	-11.5737
▁erros	-11.5738
dice	-11.5738
▁compromisso	-11.5739
▁Murphy	-11.5739
▁fechada	-11.574
ś	-11.5741
lão	-11.5742
élio	-11.5742
▁convocado	-11.5744
▁abertas	-11.5744
▁manuscritos	-11.5745
isco	-11.5745
▁competem	-11.5746
▁Ice	-11.5749
campeã	-11.5749
VI	-11.5749
▁andar	-11.575
general	-11.5751
χ	-11.5751
▁cumprir	-11.5751
▁grão	-11.5754
My	-11.5756
▁Berna	-11.576
▁originário	-11.576
IF	-11.576
▁Eng	-11.5762
▁automaticamente	-11.5763
▁laureado	-11.5763
▁iluminação	-11.5764
▁Acordo	-11.5764
anha	-11.5765
▁exame	-11.5766
niana	-11.5766
Hu	-11.5767
tila	-11.5768
▁π	-11.5768
▁Administrativa	-11.5776
▁reggae	-11.5776
▁Ginásio	-11.5776
ON	-11.5776
▁primavera	-11.5776
▁marcados	-11.5776
▁radialista	-11.5777
▁estiveram	-11.5778
▁mel	-11.5779
nell	-11.5779
▁cerveja	-11.5785
▁estimativa	-11.5787
▁Burundi	-11.5788
mine	-11.5788
▁espetáculos	-11.5789
táveis	-11.5791
▁Tamil	-11.5791
Chi	-11.5792
ibilidade	-11.5793
▁Films	-11.5794
zon	-11.5795
▁santos	-11.5798
▁Ever	-11.5799
Ad	-11.5799
Tra	-11.5799
ア	-11.58
ان	-11.5801
▁convertido	-11.5801
reta	-11.5803
▁Lanka	-11.5805
lice	-11.5807
▁About	-11.5808
▁0000-0	-11.5809
posto	-11.5811
▁restrições	-11.5813
▁post	-11.5813
▁Poe	-11.5814
▁medi	-11.5816
▁desenvolvidas	-11.5816
▁denota	-11.5816
▁cedo	-11.5817
LI	-11.5817
▁outrora	-11.5821
norte	-11.5824
UN	-11.5825
▁Tara	-11.5825
▁cientificamente	-11.5825
▁Edifício	-11.5825
▁introduziu	-11.5825
▁violão	-11.5826
▁Sk	-11.5826
arn	-11.5827
▁milho	-11.5827
tenista	-11.5827
▁molécula	-11.5829
ilha	-11.5829
zie	-11.5829
▁comentários	-11.583
rand	-11.5831
direita	-11.5832
andro	-11.5836
▁Toscana	-11.5838
▁impostos	-11.5838
▁Larry	-11.5839
▁Humanos	-11.584
▁acompanhada	-11.5843
ógrafo	-11.5845
gger	-11.5845
shin	-11.5845
pera	-11.5849
▁Integra	-11.585
▁escura	-11.585
▁Ari	-11.5851
versa	-11.5852
▁biografia	-11.5852
▁IC	-11.5852
versão	-11.5853
▁continuaram	-11.5854
▁estabilidade	-11.5854
▁IBM	-11.5854
▁usualmente	-11.5859
▁definidos	-11.5859
trop	-11.586
▁Cazaquistão	-11.5862
▁censura	-11.5862
▁Estima	-11.5863
▁Gregory	-11.5863
▁havendo	-11.5863
▁Prize	-11.5865
rp	-11.5867
▁adequada	-11.5871
▁chamava	-11.5874
▁arquitetônico	-11.5875
▁horror	-11.5875
nier	-11.5875
cera	-11.5875
▁entender	-11.5875
▁massacre	-11.5876
▁anelídeo	-11.5877
▁Virgin	-11.5879
▁enfrentar	-11.5879
▁africanos	-11.5879
▁Flash	-11.588
▁relevantes	-11.588
▁Dio	-11.588
rela	-11.5881
▁Tru	-11.5884
▁Vaz	-11.5886
▁Horn	-11.5886
▁Notícias	-11.5887
▁tombado	-11.5887
▁junção	-11.5889
odon	-11.589
lito	-11.589
▁bro	-11.5896
pr	-11.5899
▁pistas	-11.59
▁Gestão	-11.59
▁criadores	-11.5905
▁Abel	-11.5905
▁reconhecer	-11.5908
▁Ober	-11.5908
âm	-11.5909
face	-11.591
▁procedimento	-11.5911
▁incidente	-11.5911
▁concorrer	-11.5912
▁meridional	-11.5912
dido	-11.5912
▁Origin	-11.5912
▁Exerceu	-11.5913
▁Comité	-11.5915
▁celebrado	-11.5917
stan	-11.5918
▁Todo	-11.592
▁lutadores	-11.5921
▁Cass	-11.5921
▁automobilista	-11.5923
▁Dol	-11.5927
▁marcando	-11.5931
▁α	-11.5932
▁leitores	-11.5932
▁Ap	-11.5933
ف	-11.5933
▁minas	-11.5934
▁Glória	-11.5937
▁determinadas	-11.5937
▁Dama	-11.5938
▁bico	-11.5938
▁Springs	-11.5939
▁Monta	-11.5939
▁CA	-11.594
▁Sex	-11.5941
fil	-11.5942
▁Dublin	-11.5942
ítica	-11.5942
▁retirou	-11.595
▁telefilme	-11.595
▁Revolta	-11.595
fas	-11.595
▁acrônimo	-11.595
▁Pot	-11.5951
▁Valência	-11.5952
consequentemente	-11.5953
holm	-11.5955
▁Nadu	-11.5957
▁Grego	-11.5958
▁Claro	-11.5958
media	-11.596
mica	-11.596
▁algébrica	-11.5962
▁georgiano	-11.5962
▁Renault	-11.5962
▁fuga	-11.5962
▁eficiência	-11.5963
erson	-11.5965
▁Grey	-11.5966
itt	-11.5971
▁Comercial	-11.5971
dine	-11.5972
▁tre	-11.5973
▁mista	-11.5973
▁distingue	-11.5974
▁antiguidade	-11.5974
▁convenção	-11.5974
▁testemunha	-11.5974
▁renome	-11.5975
▁Doctor	-11.5977
RB	-11.5979
▁aumentou	-11.598
pot	-11.5981
mio	-11.5981
ische	-11.5984
dela	-11.5984
▁federação	-11.5987
▁Pes	-11.5989
leta	-11.599
▁faziam	-11.599
▁Póvoa	-11.5993
▁revolucionário	-11.5993
▁chuva	-11.5994
▁variadas	-11.5995
▁nebulosa	-11.5999
▁prevenção	-11.5999
▁genérico	-11.6
▁impressa	-11.6
▁previsão	-11.6
play	-11.6004
rr	-11.6004
▁esculturas	-11.6004
▁aceito	-11.6005
ffi	-11.6006
▁Vil	-11.6011
▁escuro	-11.6012
▁Lisa	-11.6012
▁golfe	-11.6013
óide	-11.6016
-0)	-11.6016
MO	-11.6016
▁reside	-11.6017
▁comprado	-11.6019
▁PMDB	-11.6022
▁mer	-11.6026
▁preta	-11.6027
ciais	-11.6028
▁cabe	-11.603
▁gastrópodes	-11.6031
▁Tol	-11.6035
▁servidores	-11.6036
aku	-11.6036
▁bônus	-11.6037
lhes	-11.6039
▁Clemente	-11.6039
''	-11.604
rano	-11.604
ל	-11.6041
ds	-11.6043
bie	-11.6044
mari	-11.6044
bula	-11.6048
info	-11.6049
▁Quin	-11.605
▁concreto	-11.605
▁bebida	-11.6051
▁libertação	-11.6052
▁consequências	-11.6052
mour	-11.6053
vid	-11.6053
mana	-11.6054
▁Sci	-11.6058
▁Milan	-11.606
▁equivale	-11.606
▁Pass	-11.6062
▁Ocean	-11.6062
▁Esportivo	-11.6063
▁prestígio	-11.6063
ind	-11.6064
▁chapa	-11.6065
▁celebração	-11.6066
▁comandada	-11.6067
▁Brooklyn	-11.6067
▁rivalidade	-11.6067
▁necessárias	-11.6068
hun	-11.6069
▁Gotemburgo	-11.6069
▁longos	-11.6069
▁sar	-11.607
▁abelhas	-11.607
▁Checa	-11.6074
▁Catarinense	-11.6075
▁Nome	-11.6075
▁chefes	-11.6076
▁orientais	-11.6076
▁esperança	-11.6076
▁Mercedes	-11.6076
▁Princeton	-11.6077
▁documenta	-11.6078
▁totalidade	-11.6079
▁abandonou	-11.6079
von	-11.608
▁Pequeno	-11.6082
eria	-11.6082
▁Zan	-11.6085
▁cult	-11.6085
▁Leipzig	-11.6086
Para	-11.6087
▁bebidas	-11.6087
▁Laboratório	-11.6088
▁recordista	-11.6088
▁Isa	-11.6088
▁cover	-11.6089
▁Control	-11.6089
ômetro	-11.609
▁Sueca	-11.6091
skaia	-11.6091
▁Fen	-11.6092
▁datada	-11.6093
cter	-11.6095
▁ofensiva	-11.6098
bateria	-11.6098
▁Rota	-11.6098
ibe	-11.61
▁Democracia	-11.6101
▁islâmica	-11.6101
▁Laos	-11.6102
▁vizinho	-11.6103
amba	-11.6107
▁francesas	-11.611
▁Nicarágua	-11.6113
▁Trabalhista	-11.6113
▁Espaço	-11.6113
▁Ermida	-11.6114
▁geografia	-11.6114
▁pala	-11.6115
ivas	-11.6116
ин	-11.6117
▁beira	-11.6118
▁tubo	-11.6118
▁che	-11.6119
▁menciona	-11.6119
▁Filadélfia	-11.612
▁Liber	-11.612
▁retratos	-11.612
▁estável	-11.6122
▁assina	-11.6123
▁tour	-11.6124
▁reunir	-11.6124
sua	-11.6124
▁genes	-11.6124
otti	-11.6125
▁infantis	-11.6126
▁mísseis	-11.6126
▁vazio	-11.6126
▁denominações	-11.6128
▁ricos	-11.6129
▁Raw	-11.6129
uter	-11.613
▁Rad	-11.613
▁Face	-11.613
▁reivindica	-11.6134
▁Mare	-11.6135
enko	-11.6136
▁encerrada	-11.6136
bury	-11.6138
▁progresso	-11.6139
▁Lit	-11.6139
▁traduzida	-11.6141
▁editada	-11.6141
TP	-11.6143
▁diferencial	-11.6145
vita	-11.6147
▁escolar	-11.6149
och	-11.615
▁temos	-11.6151
▁Emanuel	-11.6151
▁intermediário	-11.6151
▁Mercury	-11.6151
porta	-11.6153
▁golfo	-11.6153
▁expressões	-11.6153
▁Bobby	-11.6153
▁levantamento	-11.6153
fone	-11.6154
▁adquirido	-11.6154
▁judeu	-11.6154
▁Stu	-11.6154
estra	-11.6155
▁ferrovia	-11.6156
▁Sat	-11.6157
Tu	-11.6158
▁Sche	-11.6159
▁lema	-11.616
Port	-11.616
ý	-11.6161
AG	-11.6161
dig	-11.6162
ς	-11.6162
nhas	-11.6163
▁Formicinae	-11.6164
▁Paraíso	-11.6164
▁viajou	-11.6165
▁Murray	-11.6165
phon	-11.6169
▁Josh	-11.617
▁catalog	-11.6171
alis	-11.6171
gico	-11.6172
iko	-11.6173
▁Paramount	-11.6177
▁sufecto	-11.6177
ática	-11.6177
▁prisioneiros	-11.6177
▁Main	-11.6179
▁internos	-11.6179
▁Deep	-11.6182
imp	-11.6183
▁comporta	-11.6185
▁Linda	-11.6185
unda	-11.6186
▁Tejo	-11.6188
▁Xa	-11.6188
▁pau	-11.619
▁falam	-11.619
▁Públio	-11.619
▁Gazeta	-11.619
▁acontecer	-11.6194
TM	-11.6195
▁estabelecidas	-11.6197
▁Bow	-11.6199
▁Metropolitano	-11.6199
▁Lapa	-11.62
▁Kh	-11.6201
▁tornaria	-11.6201
tara	-11.6202
▁Days	-11.6202
ESP	-11.6202
teen	-11.6202
▁Namíbia	-11.6203
▁cerebral	-11.6203
▁instituído	-11.6203
▁powiat	-11.6203
▁renomado	-11.6203
▁sênior	-11.6203
▁pistola	-11.6203
ardi	-11.6204
▁Indo	-11.6204
▁bibliotecas	-11.6204
▁colunas	-11.6205
▁monge	-11.6211
▁explorar	-11.6214
▁Prote	-11.6214
▁benefícios	-11.6216
▁trabalhado	-11.6216
▁TVI	-11.6217
▁Aaron	-11.6217
▁pediu	-11.622
▁ed	-11.6221
▁Fol	-11.6222
▁coral	-11.6223
yne	-11.6224
▁sonoras	-11.6226
▁pretendia	-11.6228
▁enfatiza	-11.6228
▁primitiva	-11.6228
▁hierarquia	-11.6229
▁adaptações	-11.623
▁Drama	-11.623
▁Fel	-11.623
▁Edi	-11.623
Um	-11.6231
▁Barba	-11.6231
sim	-11.6232
▁irmãs	-11.6234
rg	-11.6234
iki	-11.6235
▁confirmada	-11.6235
▁Morais	-11.6238
▁abrir	-11.6238
filia	-11.6239
▁PSD	-11.6239
▁estágios	-11.6239
▁placar	-11.624
▁quadrado	-11.624
▁Audi	-11.624
Cl	-11.624
▁completou	-11.624
▁colaborador	-11.624
▁rr	-11.6241
▁Cearense	-11.6241
▁Ferdinand	-11.6241
▁Sierra	-11.6241
ord	-11.6241
fos	-11.6242
▁В	-11.6243
▁viva	-11.6245
pira	-11.6245
▁modificado	-11.6246
Mon	-11.6246
▁diferencia	-11.6247
но	-11.6248
▁CEO	-11.6248
izando	-11.6251
ح	-11.6251
▁Águas	-11.6252
▁gl	-11.6253
▁Gaia	-11.6253
▁Leiria	-11.6253
▁lendário	-11.6254
▁linguista	-11.6254
▁forçado	-11.6254
▁organizou	-11.6254
▁cubano	-11.6254
gara	-11.6255
▁dançarina	-11.6255
▁procedimentos	-11.6255
▁comemoração	-11.6256
▁interpretações	-11.6257
▁batizada	-11.6257
aviões	-11.6257
▁controlo	-11.6257
▁Kings	-11.6259
▁constantes	-11.6259
▁Castell	-11.6263
▁Terceiro	-11.6267
▁Draft	-11.6267
▁Africana	-11.6268
▁argumenta	-11.6268
▁denomina	-11.6268
▁investigações	-11.6269
html	-11.6269
▁vestígios	-11.6271
▁governado	-11.6272
▁coberto	-11.6275
RT	-11.6275
rc	-11.6276
hou	-11.6277
▁constantemente	-11.6278
ivos	-11.6279
▁actriz	-11.628
▁Pena	-11.6282
▁decorrência	-11.6282
▁gregoriano	-11.6282
kawa	-11.6283
▁Cr	-11.6284
cam	-11.6284
▁Pac	-11.6284
▁cano	-11.6285
vão	-11.6286
wen	-11.6286
▁Remo	-11.6289
▁humorista	-11.6292
▁Champ	-11.6293
cerca	-11.6295
▁colombiana	-11.6297
▁Scha	-11.6299
▁programado	-11.63
arca	-11.6304
bela	-11.6305
Gra	-11.6305
ą	-11.6306
▁Desportiva	-11.6306
▁legislativas	-11.6311
dó	-11.6311
ixe	-11.6312
▁Julia	-11.6317
tov	-11.6318
▁tributo	-11.6319
▁combates	-11.6319
▁Gy	-11.632
vision	-11.6321
lítico	-11.6321
▁financeiras	-11.6321
▁Tr	-11.6324
▁videoclipes	-11.6325
rad	-11.6326
sberg	-11.6327
▁vivendo	-11.6327
urus	-11.6328
▁deixado	-11.6329
ع	-11.6329
▁Autónoma	-11.6332
▁Phoenix	-11.6332
nário	-11.6333
▁Sociais	-11.6333
▁reconhecidos	-11.6333
▁funcionar	-11.6334
aça	-11.6335
▁App	-11.6335
▁cresce	-11.6337
▁estelar	-11.6341
▁Moto	-11.6342
barca	-11.6344
▁vieram	-11.6346
▁Astro	-11.6348
▁abrangendo	-11.6349
▁Corn	-11.6352
▁Cour	-11.6354
oidea	-11.6355
▁Animal	-11.6355
▁Goa	-11.6356
lhão	-11.6357
▁património	-11.6358
▁reuniões	-11.6358
▁Daily	-11.6359
▁euro	-11.636
▁بن	-11.6361
omys	-11.6361
vice	-11.6364
yon	-11.6365
Ch	-11.6368
▁transportes	-11.6369
▁Diz	-11.6369
▁apresentados	-11.637
▁Menezes	-11.6371
▁manifesta	-11.6373
▁diplomáticas	-11.6374
mma	-11.6376
ril	-11.6376
▁Anth	-11.6377
▁dizem	-11.6377
▁ref	-11.6377
▁Riba	-11.6378
ndra	-11.6378
▁Album	-11.6378
▁Op	-11.6379
▁continuam	-11.638
quí	-11.6381
▁Horta	-11.6381
▁chá	-11.6381
band	-11.6381
Recife	-11.6382
bs	-11.6383
▁Census	-11.6384
esi	-11.6384
hoje	-11.6386
▁?)	-11.6388
lab	-11.6388
▁conteúdos	-11.6392
bje	-11.6392
Gu	-11.6392
▁Gas	-11.6395
ović	-11.6396
▁Born	-11.6396
▁Madagascar	-11.6397
▁telespectadores	-11.6397
▁Forbes	-11.6398
▁fluido	-11.6398
▁arranjador	-11.64
▁colegas	-11.6401
▁aí	-11.6401
cilia	-11.6401
▁pão	-11.6402
▁sódio	-11.6402
ité	-11.6402
ко	-11.6408
SL	-11.6409
▁Dec	-11.6409
▁inserido	-11.641
▁Greatest	-11.6411
▁pobreza	-11.6411
▁Cac	-11.6414
On	-11.6415
▁pacote	-11.6417
▁lhes	-11.642
▁Off	-11.642
nius	-11.6421
▁Technology	-11.6423
▁visconde	-11.6423
▁Ralph	-11.6423
▁Quem	-11.6427
air	-11.6428
▁Potter	-11.6428
▁Lula	-11.6429
ре	-11.6429
▁câmera	-11.643
▁versos	-11.643
ois	-11.6431
▁inferiores	-11.6432
▁Profissional	-11.6436
▁Rogério	-11.6436
stic	-11.6436
▁convite	-11.6437
▁Diana	-11.6438
rig	-11.644
▁seguro	-11.6441
▁rec	-11.6444
ли	-11.6446
▁ancestral	-11.6448
text	-11.6449
time	-11.645
▁Craig	-11.6452
▁Dub	-11.6453
▁estabelecendo	-11.6457
▁assentos	-11.6458
▁pintores	-11.6459
estar	-11.6459
▁governa	-11.6461
▁orbita	-11.6462
▁Polyrhachis	-11.6463
▁Cornélio	-11.6463
▁Darwin	-11.6463
▁Produzido	-11.6463
▁renomeado	-11.6468
▁incorporado	-11.6468
eni	-11.6469
▁nega	-11.6471
cea	-11.6472
▁EMI	-11.6476
▁assumindo	-11.6476
▁Beau	-11.6477
gueiro	-11.648
roy	-11.6482
metragens	-11.6489
▁homónimo	-11.6489
▁Divi	-11.6489
▁decorreu	-11.649
gard	-11.649
▁bons	-11.6492
▁transforma	-11.6493
ης	-11.6493
▁Lí	-11.6495
▁relevante	-11.6496
▁retro	-11.6497
▁Honra	-11.65
▁Trabalha	-11.6501
▁entendimento	-11.6502
▁imperatriz	-11.6502
▁GNU	-11.6503
▁matou	-11.6505
▁empregados	-11.6506
▁misto	-11.6506
▁English	-11.6509
uso	-11.651
uno	-11.6511
▁alcançaram	-11.6512
iente	-11.6514
▁inovação	-11.6515
ت	-11.6516
bir	-11.6516
▁Kri	-11.6517
▁suave	-11.6518
▁beneficia	-11.6519
▁mostrado	-11.6519
▁determinação	-11.652
▁Leal	-11.652
▁hits	-11.652
▁colina	-11.6521
▁temperadas	-11.6522
▁firma	-11.6522
▁prop	-11.6524
▁significativas	-11.6524
▁circunstâncias	-11.6528
▁conquistada	-11.653
▁Yang	-11.653
bl	-11.6531
▁causado	-11.6532
cé	-11.6533
▁Canadian	-11.6534
lands	-11.6534
▁Allan	-11.6535
ridge	-11.654
▁Forest	-11.654
tir	-11.6542
hip	-11.6542
▁Artístico	-11.6543
▁costumam	-11.6543
ime	-11.6544
▁Menor	-11.6544
▁Colúmbia	-11.6546
unidense	-11.6546
▁claramente	-11.6547
}\	-11.6549
▁confi	-11.6551
▁embaixada	-11.6551
▁Arco	-11.6552
adora	-11.6554
▁garantiu	-11.6555
▁projeção	-11.6555
▁provincial	-11.6555
▁rebelião	-11.6555
oco	-11.6556
▁acusações	-11.6556
▁homo	-11.6558
ets	-11.6559
▁consoles	-11.6561
toria	-11.6561
nau	-11.6562
Sch	-11.6562
▁ensaio	-11.6564
▁Electronic	-11.6564
▁mito	-11.6568
▁Herzegovina	-11.6568
▁condecoração	-11.6568
▁contempla	-11.6569
▁Argentino	-11.6569
▁Danny	-11.6571
cine	-11.6572
ew	-11.6573
dai	-11.6574
▁denominados	-11.6575
▁caro	-11.6577
▁potências	-11.6578
ер	-11.6582
▁pertenceu	-11.6582
▁emprestado	-11.6582
ign	-11.6583
▁tendem	-11.6584
lares	-11.6584
▁Hit	-11.6584
▁Podem	-11.6588
▁Guia	-11.6589
Val	-11.6591
ôme	-11.6594
▁masculinas	-11.6595
▁tecladista	-11.6595
▁residencial	-11.6595
▁trazendo	-11.6596
▁Bird	-11.6596
▁Representantes	-11.6599
▁terrenos	-11.6602
▁jato	-11.6606
▁colega	-11.6607
▁Leonor	-11.6608
FL	-11.6608
▁Carabidae	-11.6608
▁Ocupou	-11.6608
▁Dictionary	-11.6609
▁Delgada	-11.6609
▁Next	-11.661
ovac	-11.661
▁reconhecidas	-11.6612
▁sofre	-11.6612
▁podiam	-11.6613
▁fibras	-11.6616
▁teor	-11.6618
had	-11.6619
cles	-11.662
▁únicas	-11.6621
▁Auvérnia	-11.6622
▁opções	-11.6622
▁Nilo	-11.6623
▁tumba	-11.6623
00000	-11.6624
vet	-11.6625
▁Gall	-11.6625
▁Ghost	-11.6629
▁queria	-11.6632
▁Cast	-11.6635
▁económico	-11.6635
▁previamente	-11.6637
▁ala	-11.6637
▁indoor	-11.6638
▁Woman	-11.6638
▁desenvolvedores	-11.6639
▁conecta	-11.6639
▁servem	-11.6641
çada	-11.6644
poda	-11.6645
tinha	-11.6645
ulus	-11.6646
▁León	-11.6646
▁deixaram	-11.6646
▁Tang	-11.6647
▁Conquistou	-11.6649
▁folclore	-11.6649
▁recusou	-11.6649
▁coordenação	-11.665
▁Leandro	-11.665
▁Virgo	-11.6652
cop	-11.6652
▁Hughes	-11.6654
One	-11.6657
▁Ocorre	-11.6657
dam	-11.6658
▁possibilita	-11.6659
▁astronauta	-11.666
emia	-11.6661
▁Camboja	-11.6662
▁Gaúcho	-11.6662
▁eclipse	-11.6662
▁cama	-11.6664
reia	-11.6668
▁permanecer	-11.6668
▁cantou	-11.667
▁Christ	-11.6672
▁treino	-11.6673
uba	-11.6673
▁registra	-11.6675
▁Fil	-11.6675
▁Capi	-11.6675
▁Fútbol	-11.6675
▁influenciou	-11.6675
▁renúncia	-11.6675
coautor	-11.6676
▁voleibolista	-11.6677
FF	-11.6678
▁Kill	-11.6679
▁compõe	-11.668
▁Árabe	-11.6682
ículo	-11.6684
▁Gale	-11.6684
▁CB	-11.6685
▁étnico	-11.6686
].	-11.6687
▁les	-11.6688
▁Scho	-11.6688
▁arquitectura	-11.6689
▁arremesso	-11.6689
▁Numa	-11.669
▁Baltimore	-11.669
▁fun	-11.669
▁fl	-11.6691
▁Io	-11.6691
▁gerada	-11.6691
▁Spin	-11.6692
teria	-11.6698
▁Catar	-11.6698
▁Schi	-11.6699
▁casar	-11.6699
oideae	-11.67
tante	-11.6701
▁Pais	-11.6701
▁confirmou	-11.6702
▁Econômica	-11.6702
▁Fantasy	-11.6702
▁polonesa	-11.6703
▁Collins	-11.6703
▁Justiniano	-11.6703
▁Reference	-11.6704
▁After	-11.6705
▁Proteção	-11.6706
shu	-11.6706
▁Gang	-11.6707
▁estrangeiras	-11.6709
▁pago	-11.6709
▁gerando	-11.6711
▁Minha	-11.6712
▁cast	-11.6713
grama	-11.6715
▁Ful	-11.6715
▁frutas	-11.6715
▁paraguaio	-11.6716
▁semifinais	-11.6716
quo	-11.6717
▁domésticos	-11.6718
▁exata	-11.6718
▁observa	-11.6721
iner	-11.6722
ison	-11.6722
toma	-11.6723
ב	-11.6723
▁básicos	-11.6723
Sul	-11.6726
▁envolvem	-11.6728
▁abrigar	-11.6732
▁mencionada	-11.6732
▁efetivamente	-11.6734
▁Consiste	-11.6734
▁Plata	-11.6735
deus	-11.674
▁variar	-11.674
▁negativa	-11.6741
▁toma	-11.6742
▁Feminina	-11.6743
▁cúpula	-11.6743
▁Quênia	-11.6743
▁esportivos	-11.6743
▁Figueira	-11.6744
▁modificações	-11.6744
▁chão	-11.6745
▁conseguido	-11.6746
▁lesão	-11.6746
▁Pequena	-11.6752
iensis	-11.6754
▁Amsterdã	-11.6756
shan	-11.6759
▁Made	-11.676
▁Então	-11.676
▁dueto	-11.6762
▁Exemplos	-11.6763
▁Drive	-11.6768
ear	-11.6769
▁talento	-11.6769
▁sombra	-11.677
▁pluricelulares	-11.677
▁Celso	-11.6771
▁vinculada	-11.6771
▁lidar	-11.6777
▁tomaram	-11.6778
▁Setúbal	-11.678
▁armada	-11.678
pondo	-11.678
▁semestre	-11.6782
▁proveniente	-11.6783
▁Kenneth	-11.6784
▁Salamanca	-11.6784
▁infecção	-11.6784
▁protegido	-11.6784
▁Chang	-11.6785
▁Bia	-11.6788
▁Tech	-11.6789
oon	-11.6789
burn	-11.679
▁teclado	-11.6791
▁cata	-11.6792
▁Nice	-11.6793
▁hetero	-11.6793
▁alemãs	-11.6794
oi	-11.6795
▁Ultra	-11.6797
▁jornada	-11.6797
▁ilustrações	-11.6798
▁Pont	-11.68
▁deficiente	-11.6802
rell	-11.6802
▁Peak	-11.6802
î	-11.6806
▁Vas	-11.6807
feri	-11.6808
▁preservar	-11.6809
▁Matos	-11.681
▁Cascais	-11.681
▁Ace	-11.681
▁Pel	-11.681
ape	-11.681
▁ideais	-11.6811
▁Denis	-11.6811
х	-11.6812
▁Beatriz	-11.6812
▁acompanhamento	-11.6814
élia	-11.6815
▁moto	-11.6816
00)	-11.6816
▁pescoço	-11.6817
dul	-11.682
▁vizinhas	-11.6822
nesa	-11.6822
nó	-11.6823
IR	-11.6824
▁Three	-11.6825
▁Ame	-11.6825
▁Trump	-11.6826
▁desfile	-11.6828
▁Hope	-11.6828
▁log	-11.6829
▁Guardian	-11.6829
+0	-11.6829
sola	-11.6829
▁realizaram	-11.683
▁morre	-11.683
▁(?	-11.683
▁Alpha	-11.6834
water	-11.6836
izações	-11.6837
ή	-11.6838
▁aposentou	-11.6838
▁cidadania	-11.6838
▁estoniano	-11.6838
ntina	-11.6838
Love	-11.6839
FM	-11.684
▁Equipe	-11.684
▁Athletic	-11.684
▁Mit	-11.6841
▁Kay	-11.6843
db	-11.6843
▁Prof	-11.6843
▁Ducado	-11.6844
▁acabaram	-11.6846
▁Doce	-11.6847
▁conf	-11.6847
▁tocando	-11.6848
▁cá	-11.6848
▁verdes	-11.6849
▁retirar	-11.685
▁Dy	-11.6851
▁Commonwealth	-11.6852
▁compatriota	-11.6852
vali	-11.6853
mundo	-11.6853
▁proporção	-11.6853
GE	-11.6853
▁prelado	-11.6853
fico	-11.6853
século	-11.6853
▁liberais	-11.6855
vina	-11.6855
▁trechos	-11.6856
▁Florida	-11.6858
▁Guitar	-11.6858
▁anã	-11.686
nai	-11.6861
tista	-11.6862
▁Té	-11.6862
▁anão	-11.6862
nh	-11.6862
kes	-11.6863
▁reinou	-11.6864
▁it	-11.6864
uá	-11.6865
▁Fernández	-11.6866
▁consistiu	-11.6866
ская	-11.6866
▁Information	-11.6866
▁comitê	-11.6866
act	-11.6866
▁distinguir	-11.6866
▁vasto	-11.687
▁pur	-11.687
▁Dez	-11.6871
▁asteroides	-11.6872
▁Jonas	-11.6873
▁Quanto	-11.6873
▁Western	-11.6875
▁Gai	-11.6875
▁Kru	-11.6875
jos	-11.6878
▁Mongólia	-11.6879
▁presidenciais	-11.6879
▁Church	-11.6879
▁orgânico	-11.688
Br	-11.688
▁Nele	-11.688
▁favoráveis	-11.6881
▁cru	-11.6881
▁Sac	-11.6881
raça	-11.6882
▁Lane	-11.6883
ω	-11.6884
▁Pier	-11.6884
omo	-11.6886
▁Adriano	-11.6888
▁Hop	-11.6888
ffe	-11.6889
▁Mini	-11.6889
▁Hunt	-11.689
▁Masters	-11.689
ory	-11.689
▁Má	-11.6891
▁comunistas	-11.6892
▁ilustrada	-11.6893
▁calibre	-11.6893
▁deputada	-11.6894
HA	-11.6897
▁mídias	-11.6898
▁luso	-11.6898
NI	-11.69
▁Kle	-11.6902
▁boy	-11.6904
▁destacado	-11.6905
ा	-11.6907
▁Cameron	-11.6907
▁disposição	-11.6907
▁renunciou	-11.6908
▁trens	-11.6908
▁Child	-11.6909
▁ur	-11.6911
Belo	-11.6913
▁esperado	-11.6913
itário	-11.692
▁Guanabara	-11.6921
▁Interactive	-11.6921
▁tecnológica	-11.6921
▁propôs	-11.6921
▁subdivisão	-11.6921
▁Contém	-11.6921
▁mecânico	-11.6922
▁isolada	-11.6922
▁Abadia	-11.6922
▁Ruanda	-11.6923
▁referendo	-11.6923
▁afirmam	-11.6931
▁Jet	-11.6932
▁futura	-11.6933
pedia	-11.6933
▁universitária	-11.6934
▁−0.00	-11.6935
MB	-11.6935
▁incluídas	-11.6935
▁Registro	-11.6935
dições	-11.6935
▁Wallace	-11.6935
▁Diamond	-11.6935
▁imper	-11.6936
▁Menino	-11.6936
▁Singh	-11.6938
▁Rangers	-11.6939
▁Brun	-11.694
▁maneiras	-11.694
▁Stre	-11.6944
▁acústica	-11.6944
▁passe	-11.6945
▁comandou	-11.6946
▁pirâmide	-11.6948
▁competência	-11.695
▁Masa	-11.695
ítico	-11.6951
▁respostas	-11.6953
▁Oak	-11.6954
▁enviada	-11.6954
▁Ö	-11.6955
AO	-11.6955
cido	-11.6958
▁Título	-11.6959
▁ultra	-11.6961
▁Müller	-11.6962
▁degradadas	-11.6962
mbre	-11.6964
▁usina	-11.6965
▁Mani	-11.6965
mbro	-11.6966
▁Areia	-11.6968
doras	-11.6968
▁Marca	-11.6969
Est	-11.697
▁Kol	-11.6971
quis	-11.6972
▁tentando	-11.6973
▁compor	-11.6975
▁expandiu	-11.6976
▁elogiaram	-11.6976
▁restaurante	-11.6978
▁veicul	-11.6979
▁Spi	-11.698
▁Marta	-11.6981
neu	-11.6981
▁trabalhava	-11.6982
ús	-11.6983
▁tripulantes	-11.6983
▁Bert	-11.6985
nensis	-11.6985
▁cobertos	-11.6985
▁leito	-11.6986
▁viviam	-11.6988
oeste	-11.6988
▁Marechal	-11.699
▁Supercopa	-11.699
▁Rab	-11.6991
▁perdida	-11.6991
▁Edition	-11.6991
▁Keith	-11.6992
▁módulo	-11.6992
yana	-11.6992
▁notório	-11.6992
▁desastre	-11.6992
vier	-11.6995
▁Def	-11.6995
▁Hits	-11.6995
▁GT	-11.6996
▁envolvidas	-11.6997
▁AG	-11.6997
▁000.0	-11.6998
▁subsequente	-11.6998
▁demonstra	-11.7
ope	-11.7001
▁Pil	-11.7001
cons	-11.7001
▁lendas	-11.7002
▁arrecadou	-11.7004
wall	-11.7004
▁Andes	-11.7004
▁transmite	-11.7004
íssima	-11.7004
▁aponta	-11.7004
▁comparada	-11.7005
▁penal	-11.7006
▁Transporte	-11.7006
▁poderosa	-11.7008
iense	-11.7009
ílico	-11.701
nina	-11.7011
UE	-11.7011
Art	-11.7014
esco	-11.7015
▁Ávila	-11.7015
▁turnês	-11.7016
ery	-11.7016
▁maratona	-11.7018
▁reconstrução	-11.7018
▁grafado	-11.7018
▁Ópera	-11.7018
▁Chegou	-11.7018
▁pó	-11.7019
▁pintora	-11.7021
▁Lava	-11.7023
▁FRS	-11.7025
▁telenovelas	-11.7025
▁Σ	-11.7029
▁pá	-11.7029
▁Dakota	-11.7031
▁Misericórdia	-11.7031
▁Número	-11.7031
▁Ambiental	-11.7031
▁plan	-11.7032
▁Desportivo	-11.7032
▁ornamentais	-11.7033
▁Georges	-11.7033
▁quartas	-11.7034
▁duma	-11.7034
ecida	-11.7034
▁viola	-11.7035
▁Armada	-11.7037
▁Casal	-11.7037
quinho	-11.7041
▁núcleos	-11.7042
escu	-11.7042
▁ministra	-11.7042
▁nativas	-11.7043
nim	-11.7044
▁SM	-11.7045
▁Márcio	-11.7045
▁escândalo	-11.7045
▁futsal	-11.7045
ann	-11.7047
▁consecutivo	-11.7048
rismo	-11.705
str	-11.705
],	-11.7051
▁Gilbert	-11.7051
cie	-11.7052
▁consumidores	-11.7052
▁memórias	-11.7052
oide	-11.7054
pter	-11.7055
▁Irmãos	-11.7055
bria	-11.7056
rgo	-11.7056
▁difere	-11.7058
▁Montgomery	-11.7059
▁Myanmar	-11.7059
▁Ráscia	-11.7059
▁Silent	-11.706
▁honorário	-11.7061
vig	-11.7065
ioso	-11.7066
▁disc	-11.7066
hō	-11.7067
▁tomando	-11.7067
pli	-11.7069
apa	-11.7071
▁Evil	-11.7072
▁explosão	-11.7073
▁defensores	-11.7074
▁quadra	-11.7075
uais	-11.7079
rella	-11.7082
▁Rin	-11.7083
▁Cachoeira	-11.7084
Ed	-11.7086
▁Alejandro	-11.7087
▁Bielorrússia	-11.7087
▁Eslovênia	-11.7087
▁Expedição	-11.7087
▁Christmas	-11.7088
▁mineração	-11.7088
tique	-11.7089
ym	-11.7089
▁obtida	-11.7091
▁eliminado	-11.7093
▁dial	-11.7095
▁Abaixo	-11.7095
▁dieta	-11.7098
▁Arquitetura	-11.7101
▁Encyclopedia	-11.7101
▁Stephan	-11.7102
▁Interesse	-11.7102
▁soviéticos	-11.7102
Her	-11.7104
ológico	-11.7106
];	-11.7109
Va	-11.7109
▁aumentando	-11.711
stância	-11.7111
▁registrou	-11.7112
▁Cova	-11.7112
▁Guide	-11.7112
▁comandado	-11.7112
estado	-11.7115
ù	-11.7115
▁clérigo	-11.7115
▁fio	-11.7116
▁desportista	-11.7116
ncy	-11.7116
▁И	-11.7117
pic	-11.7119
▁†	-11.712
quete	-11.7125
ز	-11.7126
▁coreana	-11.7127
▁Davi	-11.7128
▁gri	-11.7129
▁observado	-11.7129
▁alcunha	-11.7129
▁transferiu	-11.7129
▁tombada	-11.7129
▁violenta	-11.713
▁evidente	-11.713
▁Name	-11.713
▁baiano	-11.7131
▁crioulo	-11.7133
dle	-11.7133
▁converteu	-11.7134
▁eliminatórias	-11.7134
▁Montanha	-11.7134
▁organizados	-11.7135
▁eficaz	-11.7138
ND	-11.7139
tical	-11.7139
▁(00,0	-11.714
▁substitui	-11.7142
▁internas	-11.7143
▁Negócios	-11.7144
▁empresária	-11.7144
▁ítalo	-11.7144
▁Netuno	-11.7144
game	-11.7144
▁imigração	-11.7144
▁docente	-11.7147
~	-11.7147
rz	-11.7147
▁inaugural	-11.7148
▁elétricos	-11.7149
▁Pav	-11.7149
▁0000000000	-11.7149
▁diminuir	-11.7151
▁rotas	-11.7154
▁instruções	-11.7158
▁neerlandesa	-11.7158
▁cronista	-11.7158
▁supervisão	-11.7158
▁Dessa	-11.7159
dinho	-11.716
opsis	-11.7161
▁Nasce	-11.7161
▁Sacramento	-11.7165
▁Basco	-11.7166
▁Key	-11.7166
sica	-11.7167
▁0.0.0	-11.7168
vari	-11.7169
▁marquês	-11.7172
▁ritual	-11.7172
▁Vic	-11.7173
▁Special	-11.7173
▁padres	-11.7177
▁consecutiva	-11.7178
▁executa	-11.7179
▁ribeira	-11.7186
▁Galvão	-11.7186
▁Luigi	-11.7186
gma	-11.7187
itch	-11.7188
▁Baptista	-11.7189
▁baixos	-11.7194
▁classificar	-11.7194
▁braços	-11.7195
▁Mission	-11.7196
psi	-11.7196
▁Localizada	-11.7196
▁escolhidos	-11.7198
Tur	-11.7199
eth	-11.72
▁Voice	-11.7201
▁colonos	-11.7201
ull	-11.7201
▁singular	-11.7203
▁Mack	-11.7203
▁apresentadas	-11.7204
▁diálogo	-11.7205
onne	-11.7205
▁incêndios	-11.7206
▁blog	-11.7207
nam	-11.7207
ília	-11.721
kka	-11.7211
▁Céu	-11.7212
▁rumo	-11.7212
▁fazendeiro	-11.7214
▁confiança	-11.7215
▁postos	-11.7215
▁Formou	-11.7217
▁Nicole	-11.7219
▁hábito	-11.722
▁Bin	-11.7221
▁Adelaide	-11.7221
▁Wald	-11.7222
▁Sevilha	-11.7223
▁cone	-11.7223
▁venceram	-11.7227
▁plena	-11.7228
mand	-11.7228
▁muçulmana	-11.7228
▁tabuleiro	-11.7229
▁Avi	-11.7229
FI	-11.7232
▁Sintra	-11.7232
vora	-11.7232
GS	-11.7233
▁janelas	-11.7234
▁clipe	-11.7234
oxi	-11.7238
▁estreitas	-11.724
rah	-11.7241
métrico	-11.7241
▁desaparecimento	-11.7243
▁conglomerado	-11.7243
▁Aba	-11.7243
▁externas	-11.7246
ה	-11.7247
▁corporal	-11.7247
ísmo	-11.7251
▁precursor	-11.7252
data	-11.7254
▁salvar	-11.7254
▁executivos	-11.7255
▁Pastor	-11.7255
▁Publishing	-11.7257
▁Ingrid	-11.7258
▁nomeados	-11.7258
▁Luca	-11.7258
▁Sítio	-11.7259
vert	-11.7259
▁Wind	-11.7259
▁gay	-11.726
▁vêm	-11.7263
▁0-0.	-11.7263
ificada	-11.7263
▁Escu	-11.7263
Tri	-11.7265
▁German	-11.7267
rach	-11.7268
▁Arca	-11.7268
▁apontado	-11.7269
▁dono	-11.727
▁00,00000	-11.7273
FS	-11.7275
▁caminhos	-11.7275
▁Empire	-11.7276
▁átomo	-11.7278
▁transtorno	-11.7278
▁épico	-11.7278
mãe	-11.7279
nja	-11.7282
▁Deli	-11.7283
▁acessado	-11.7284
▁Bau	-11.7285
▁traseira	-11.7286
▁Piazza	-11.7286
▁parecido	-11.7286
led	-11.7287
^{0}	-11.7289
▁grafo	-11.729
aci	-11.7292
itu	-11.7295
quet	-11.7295
▁planejada	-11.7296
00%	-11.7298
▁aliado	-11.7299
dur	-11.7299
▁Principado	-11.73
lh	-11.73
reiro	-11.73
▁Rachel	-11.7301
▁pudesse	-11.7302
▁instância	-11.7304
DM	-11.7304
mun	-11.7305
▁sentimento	-11.7307
nzo	-11.7307
▁créditos	-11.7307
▁saque	-11.7308
▁Emirados	-11.7309
tua	-11.7309
mbros	-11.731
▁superar	-11.7314
▁viúva	-11.7314
monte	-11.7315
▁Pit	-11.7317
▁Vis	-11.7318
▁beta	-11.7319
▁permanentes	-11.7319
reira	-11.732
gari	-11.7321
▁adapta	-11.7322
▁Boris	-11.7326
▁Sau	-11.7327
mathb	-11.7327
▁qua	-11.7327
▁flui	-11.7327
▁Unterseeboot	-11.7328
▁controversa	-11.7328
▁fiéis	-11.7329
▁Spo	-11.7329
▁Planeta	-11.733
▁identificada	-11.7331
bala	-11.7331
ché	-11.7331
▁Curta	-11.7332
ę	-11.7332
ppa	-11.7335
▁Cia	-11.7335
▁exibidos	-11.7336
▁referente	-11.7336
sei	-11.7338
▁fraco	-11.7341
jus	-11.7342
▁comprar	-11.7343
▁utilizou	-11.7343
▁bilhão	-11.7344
▁essenciais	-11.7344
cip	-11.7345
▁descon	-11.7345
▁Luke	-11.7345
left	-11.7347
▁ciclistas	-11.7347
▁Ward	-11.7348
ï	-11.7348
▁Ami	-11.7349
ар	-11.735
▁prémios	-11.7352
Grande	-11.7352
dua	-11.7353
▁cai	-11.7353
▁Passou	-11.7355
iá	-11.7356
▁Mim	-11.7356
▁pura	-11.7356
▁lançando	-11.7356
▁Ruth	-11.7356
▁Recentemente	-11.7357
▁exercido	-11.7357
▁Antártica	-11.7357
▁Ginástica	-11.7357
▁vigente	-11.7358
▁interliga	-11.7358
▁Conservação	-11.7359
▁Choice	-11.7359
▁Sonic	-11.736
▁Horas	-11.736
▁Terry	-11.7361
world	-11.7362
cabeça	-11.7364
Ab	-11.7365
▁característico	-11.7365
cep	-11.7365
▁estabeleceram	-11.7368
▁grandeza	-11.737
▁júnior	-11.7372
board	-11.7372
▁sai	-11.7372
▁Stanford	-11.7372
▁aquelas	-11.7374
ambi	-11.7376
▁Wy	-11.7378
▁sustentável	-11.7379
та	-11.7379
▁fibra	-11.738
▁Cristã	-11.7381
▁Map	-11.7382
▁Toda	-11.7382
▁Almada	-11.7382
▁correto	-11.7383
cimento	-11.7384
▁assembleia	-11.7386
▁legenda	-11.7386
cionismo	-11.7387
Sc	-11.7388
▁Rus	-11.7388
roso	-11.7389
hé	-11.7389
produção	-11.7389
BL	-11.739
▁creditada	-11.739
▁Winter	-11.7393
etas	-11.7394
nuncia	-11.7395
voz	-11.7396
Gi	-11.7397
há	-11.7398
unidade	-11.74
▁Alliance	-11.7401
▁garantia	-11.7401
▁Jessica	-11.7401
graph	-11.7402
▁térmica	-11.7402
▁Scar	-11.7404
▁USP	-11.7405
▁Board	-11.7407
во	-11.7408
▁cro	-11.7408
▁desagua	-11.7409
▁nacionalista	-11.741
▁STS	-11.7414
▁Α	-11.7415
kal	-11.7415
▁sessenta	-11.7415
▁torcida	-11.7415
▁contam	-11.7416
▁alimenta	-11.7417
▁renascentista	-11.742
▁renomeada	-11.742
-000.	-11.7422
sho	-11.7422
cte	-11.7422
▁tocada	-11.7425
cí	-11.7428
▁Satellite	-11.743
▁provocou	-11.743
▁recompensa	-11.743
▁piscina	-11.743
▁sociólogo	-11.743
ticos	-11.743
▁ensinamentos	-11.743
▁Mitchell	-11.743
▁garante	-11.743
▁Patins	-11.7431
orn	-11.7431
▁respectivas	-11.7432
▁hu	-11.7434
▁verso	-11.7435
andra	-11.7436
▁Sabe	-11.7437
▁tendências	-11.7439
▁operador	-11.7441
▁Program	-11.7441
▁Edimburgo	-11.7443
▁Pacific	-11.7443
ğ	-11.7443
▁Estremadura	-11.7444
▁comanda	-11.7444
▁angolana	-11.7444
▁invenção	-11.7444
▁major	-11.7444
▁cristãs	-11.7445
▁regravada	-11.7445
aj	-11.7446
▁Natação	-11.7447
▁agenda	-11.7448
▁Mônica	-11.745
▁Michelle	-11.7451
anne	-11.7453
▁disto	-11.7455
ious	-11.7456
▁Bern	-11.7458
▁Beyoncé	-11.7459
▁Development	-11.7459
▁requisitos	-11.7459
beck	-11.7459
▁Serviços	-11.746
oka	-11.7461
▁Inicia	-11.7461
▁Leoa	-11.7461
urg	-11.7462
▁П	-11.7462
▁Voo	-11.7463
book	-11.7464
sucedida	-11.7464
▁adoção	-11.7465
▁Julian	-11.7466
bank	-11.7467
▁Conf	-11.7468
▁barcos	-11.7469
▁Sales	-11.7471
▁estratégico	-11.7473
▁Cardeal	-11.7473
▁falecer	-11.7473
▁Adolfo	-11.7474
ipa	-11.7474
▁desenvolvedora	-11.7475
▁Aliados	-11.7476
▁Lem	-11.7478
alto	-11.7479
pres	-11.748
▁receitas	-11.7481
▁recon	-11.7481
▁pin	-11.7482
▁Ambas	-11.7482
▁Moreno	-11.7486
porte	-11.7487
▁marxista	-11.7488
▁Elias	-11.7488
▁https	-11.7489
▁Led	-11.7491
▁partindo	-11.7493
ле	-11.7493
▁Maxim	-11.7494
▁paleo	-11.7494
úria	-11.7495
AI	-11.7496
ntrou	-11.7497
conhecida	-11.7498
▁Ain	-11.7498
eon	-11.7499
▁Montevidéu	-11.7501
▁fome	-11.7502
▁Orientais	-11.7502
▁Challenger	-11.7503
▁carvão	-11.7503
▁Population	-11.7504
tory	-11.7508
won	-11.7509
Mont	-11.7509
▁gravadoras	-11.751
▁cin	-11.7512
▁telefone	-11.7513
▁vinculado	-11.7513
▁instrumentista	-11.7514
Não	-11.7514
tone	-11.7515
▁Pomoravlje	-11.7517
▁rivais	-11.7517
▁Facebook	-11.7517
▁dublagem	-11.7517
lida	-11.7518
▁marrom	-11.752
▁Curtis	-11.752
▁ducado	-11.7521
▁Rec	-11.7521
▁habitam	-11.7524
▁formados	-11.7524
rab	-11.7525
▁hábitos	-11.7526
▁minha	-11.7527
▁Guild	-11.7528
▁conc	-11.7528
▁Homo	-11.7528
bet	-11.7528
▁atribui	-11.753
▁interações	-11.7534
cast	-11.7536
▁Cé	-11.7537
▁SO	-11.7539
nhe	-11.7541
▁apoiou	-11.7543
▁descritas	-11.7543
▁acessível	-11.7546
▁Sweet	-11.7546
stadt	-11.7547
▁Enrique	-11.7547
▁leg	-11.7548
▁.00	-11.7548
Bra	-11.7549
▁corda	-11.7551
▁Lac	-11.7551
▁senadores	-11.7552
▁levam	-11.7555
▁impresso	-11.7556
liga	-11.7559
▁Representa	-11.7559
▁Ob	-11.7559
000000	-11.756
rados	-11.756
▁cheia	-11.756
gn	-11.7562
▁Ped	-11.7563
▁Kla	-11.7564
▁matemáticos	-11.7565
▁Comic	-11.7565
▁alimentam	-11.7566
▁triplo	-11.7567
\,}	-11.7568
▁CH	-11.7568
▁Lorena	-11.7569
chus	-11.757
▁ministros	-11.757
▁superfícies	-11.7571
▁Ivo	-11.7571
av	-11.7571
▁Freguesia	-11.7572
▁Drag	-11.7572
▁Tijuca	-11.7576
▁subtribo	-11.7576
▁reservas	-11.7578
▁integrando	-11.7578
▁gruta	-11.7581
▁Corre	-11.7582
pronúncia	-11.7582
▁irregular	-11.7584
▁Mach	-11.7585
▁inicio	-11.7585
▁Belle	-11.7586
AE	-11.7586
óides	-11.7588
cionário	-11.759
▁destruir	-11.7591
▁Jose	-11.7592
▁amiga	-11.7594
▁ganhador	-11.7594
▁×	-11.7595
▁Arm	-11.7595
▁Nico	-11.7596
▁Marinho	-11.7596
▁julgado	-11.7597
▁encarregado	-11.7597
ctus	-11.7598
▁Osaka	-11.7599
▁divulgar	-11.76
mico	-11.76
cata	-11.76
▁savanas	-11.76
cau	-11.7601
ixo	-11.7603
[...]
